!
"
#
##0
##00
##0s
##1
##16
##2
##22
##28
##3
##30
##32
##33
##4
##40
##41
##42
##48
##5
##50
##6
##60
##6th
##7
##8
##9
##9th
##A
##AA
##AC
##AF
##AG
##AL
##AN
##AP
##AR
##As
##B
##BA
##BC
##BE
##BL
##BO
##BS
##C
##CA
##CE
##CL
##CO
##CP
##CS
##CU
##Cs
##D
##DA
##DE
##DR
##DS
##Ds
##E
##EC
##ED
##EF
##ES
##ET
##Es
##F
##FA
##FC
##FI
##G
##GA
##GI
##GS
##H
##H1
##HA
##HC
##HD
##HF
##HL
##HP
##I
##IA
##IC
##ID
##IE
##IF
##IM
##IN
##IO
##IS
##IT
##J
##K
##KO
##L
##LA
##LC
##LM
##Leod
##M
##MA
##MCA
##MD
##ME
##MI
##ML
##MM
##MR
##MS
##MU
##Millan
##N
##NA
##NBC
##NC
##ND
##NE
##NF
##NL
##NR
##NS
##NU
##O
##OA
##OC
##OK
##OL
##OM
##OP
##OR
##OS
##OT
##OW
##Os
##P
##PA
##PI
##PM
##PP
##PS
##Q
##R
##RB
##RC
##RE
##RI
##RL
##RNA
##RO
##RS
##S
##SA
##SB
##SC
##SD
##SM
##SP
##SS
##ST
##SV
##T
##TA
##TM
##TP
##TR
##TS
##TT
##TV
##U
##UI
##UM
##UP
##UR
##V
##VA
##VC
##VI
##VN
##VR
##VS
##W
##WA
##WC
##WI
##WS
##Works
##X
##Y
##YP
##Z
##a
##aa
##aal
##aan
##ab
##aba
##abad
##abe
##abi
##ability
##able
##ables
##ably
##about
##abulous
##ac
##aca
##ace
##ach
##ache
##acher
##achi
##acing
##acity
##ack
##acle
##acles
##aco
##acon
##act
##actic
##action
##actions
##activated
##actor
##acts
##acy
##ad
##ada
##ade
##ader
##ades
##adi
##adia
##ading
##ado
##ador
##ads
##ae
##ael
##aen
##af
##aft
##ag
##aga
##agan
##age
##aged
##ager
##ages
##agger
##agh
##agi
##aging
##ago
##agu
##ah
##ahi
##ahl
##ahn
##ahu
##ai
##aia
##aic
##aid
##ail
##ailed
##ails
##ain
##aine
##aines
##air
##aire
##ais
##ait
##aj
##aja
##ak
##aka
##ake
##aker
##akes
##aki
##aking
##aks
##al
##ala
##alaya
##ald
##aldo
##ale
##ales
##alet
##aley
##ali
##alia
##aling
##alis
##ality
##alk
##all
##alle
##allo
##ally
##alo
##alog
##als
##altered
##aly
##alytic
##am
##ama
##aman
##amble
##ame
##amel
##ament
##ami
##amia
##amine
##amo
##amon
##amp
##an
##ana
##ance
##anche
##ancy
##and
##anda
##ander
##ane
##aneous
##ang
##anger
##ani
##ania
##ann
##anna
##ano
##ans
##ant
##anti
##antly
##ants
##anus
##any
##ao
##ap
##apa
##aper
##aq
##ar
##ara
##aran
##arate
##ard
##arded
##ards
##are
##ared
##arel
##ares
##aret
##ari
##aria
##arian
##aries
##arily
##arina
##aring
##ario
##aris
##arity
##ark
##arland
##arm
##arma
##arney
##aro
##arra
##ars
##art
##arte
##aru
##ary
##as
##asa
##ascism
##asco
##ase
##ash
##ashi
##asi
##asis
##ass
##ast
##aster
##astic
##asures
##at
##ata
##atch
##ate
##ated
##ately
##ater
##ates
##ath
##athed
##ather
##ati
##atic
##ating
##ation
##ational
##ations
##ative
##ato
##ator
##ators
##atory
##ats
##att
##ature
##atus
##au
##aud
##augh
##aul
##ault
##aunt
##aurus
##aus
##aut
##aux
##av
##ava
##avan
##ave
##avelin
##aven
##aver
##aves
##avi
##avia
##aving
##aw
##awa
##away
##awed
##aws
##ax
##ay
##aya
##ayman
##ays
##az
##azed
##azi
##b
##ba
##bach
##back
##backs
##bad
##bag
##bage
##bal
##ball
##balls
##ban
##bana
##band
##bank
##bankment
##bar
##bara
##bard
##bari
##barian
##bark
##bas
##base
##bat
##bate
##bation
##baum
##bayashi
##bb
##bba
##bbe
##bble
##bbs
##bby
##be
##beat
##bed
##bedience
##bee
##bei
##bek
##bel
##believable
##bell
##belt
##ben
##ber
##berg
##berger
##bering
##berman
##berry
##bers
##bert
##berto
##bery
##bes
##bet
##beth
##bey
##bha
##bi
##bia
##bian
##bic
##bid
##bidden
##bide
##bie
##bil
##bility
##bill
##bin
##bina
##bine
##bing
##bio
##biotic
##biotics
##bir
##bird
##birds
##birth
##bis
##bish
##bit
##bius
##bla
##blast
##ble
##bled
##bley
##blin
##bling
##blivion
##block
##bloid
##bly
##bo
##boa
##board
##boards
##boat
##boats
##bodied
##body
##bol
##bolt
##bon
##bone
##boo
##book
##books
##bor
##borg
##born
##borne
##boro
##borough
##bot
##bound
##bourg
##bourne
##bow
##boy
##bra
##bracing
##brae
##brand
##bre
##break
##breaker
##brecht
##bres
##bri
##bridge
##bro
##broken
##brook
##brush
##bs
##bson
##bt
##bu
##building
##bul
##bula
##bull
##bur
##burg
##burn
##burst
##bury
##bus
##buster
##but
##by
##byss
##c
##ca
##cademia
##cademies
##cake
##cal
##calated
##cam
##can
##cane
##cans
##cap
##cape
##car
##card
##cards
##care
##cars
##cas
##case
##cast
##cat
##cated
##cating
##cation
##cats
##cc
##cca
##cci
##cco
##ce
##cea
##ceae
##ced
##cede
##cedural
##ceipt
##ceive
##ceived
##cel
##cell
##cellular
##cence
##cend
##cene
##cens
##cent
##centric
##ception
##ceptive
##cer
##ces
##cess
##cession
##cey
##ch
##cha
##chair
##champ
##chan
##chang
##changing
##chanized
##chanted
##charya
##chase
##che
##ched
##chel
##chemical
##chen
##cher
##ches
##chester
##chet
##chev
##chi
##child
##chin
##china
##ching
##chism
##cho
##chor
##cht
##chu
##chuk
##chus
##chy
##ci
##cia
##cial
##cian
##cible
##cid
##cie
##cier
##cies
##cilla
##cin
##cing
##cio
##cious
##cis
##cise
##cision
##cist
##citation
##cite
##city
##cius
##ck
##cke
##cked
##cker
##ckers
##cket
##ckett
##ckey
##cki
##cking
##ckling
##ckney
##cks
##claim
##claiming
##clamation
##classical
##classified
##clave
##cle
##cles
##cliffe
##cline
##cluded
##clusive
##co
##coa
##coach
##cock
##code
##coe
##cognition
##coil
##cola
##collegiate
##cological
##cologist
##cology
##color
##com
##comb
##combe
##come
##coming
##con
##cona
##connected
##continent
##coon
##cope
##copic
##copy
##cor
##core
##corn
##cos
##cot
##cote
##cott
##course
##court
##cover
##cracy
##craft
##crat
##cratic
##cre
##cribe
##cribed
##cribing
##cript
##cription
##cripts
##croft
##crow
##cs
##ct
##cted
##ctic
##cting
##ction
##ctive
##cton
##ctor
##ctors
##cturnal
##ctus
##cu
##cula
##cular
##culate
##cule
##culture
##cum
##cumenical
##cup
##curate
##cure
##current
##cursion
##cursions
##cus
##cut
##cute
##cuted
##cy
##cz
##cé
##cée
##d
##da
##dad
##dae
##dah
##dai
##dain
##dal
##dale
##dalgo
##dam
##dan
##dant
##dar
##das
##date
##dated
##dates
##dating
##dation
##day
##dd
##dding
##ddle
##ddling
##de
##dea
##deacon
##ded
##definite
##del
##delity
##dell
##den
##dence
##dent
##der
##dered
##dering
##ders
##des
##destine
##det
##dford
##dge
##dges
##dging
##dgson
##dh
##dha
##dham
##dheim
##di
##dia
##dial
##dian
##diation
##dic
##dicate
##dicated
##dication
##dicative
##dick
##dict
##diction
##die
##dier
##dies
##different
##dified
##digo
##dina
##dine
##ding
##dington
##dio
##dious
##dir
##dira
##dis
##dit
##ditional
##ditions
##dium
##dius
##dives
##dl
##dle
##dled
##dler
##dles
##dley
##dling
##dn
##do
##dock
##dog
##dom
##don
##dong
##dos
##dote
##down
##dox
##dr
##dra
##dre
##dress
##dric
##drick
##drome
##ds
##dson
##dt
##du
##dua
##duced
##ducing
##duct
##ducted
##duction
##ductory
##due
##dus
##dy
##e
##ea
##each
##ead
##eak
##eal
##ean
##ear
##eas
##ease
##eat
##eavor
##eb
##ebrates
##ec
##eca
##ech
##eck
##ector
##ed
##eda
##edar
##edd
##ede
##edestal
##edic
##eding
##edly
##ee
##een
##eer
##eera
##eers
##ees
##eese
##ef
##eg
##egan
##egation
##ege
##ego
##egro
##eh
##ei
##eil
##eit
##ej
##ek
##el
##ela
##eld
##ele
##elf
##eli
##elier
##elin
##ell
##ella
##elle
##eller
##elles
##ello
##elly
##elo
##els
##ely
##em
##ema
##eman
##ement
##emia
##emption
##ems
##en
##ena
##enan
##enary
##ence
##encies
##encing
##ency
##end
##ended
##ending
##ene
##ened
##eng
##enham
##eni
##enia
##ening
##ennial
##eno
##ens
##ensis
##enstein
##ent
##ental
##entation
##ented
##enter
##ential
##ently
##ents
##eo
##eological
##eology
##eor
##eorological
##eous
##ep
##eper
##ept
##eptide
##er
##era
##eran
##eration
##erd
##ere
##ered
##erer
##ergic
##erham
##eri
##erial
##eric
##erie
##eries
##ering
##erland
##erly
##erman
##ermined
##ern
##erne
##ero
##erries
##ers
##erse
##erson
##ert
##erty
##erus
##ery
##es
##escu
##ese
##esh
##esi
##esign
##esis
##eson
##ess
##est
##esta
##este
##ested
##ester
##estive
##ests
##et
##eta
##ete
##eter
##eth
##eti
##etic
##etics
##eto
##eton
##ets
##ett
##etta
##ette
##ettes
##etti
##etus
##ety
##eu
##eum
##eur
##eus
##eux
##ev
##eva
##eval
##eve
##eveloped
##ever
##eves
##evich
##eville
##evity
##evo
##ew
##ews
##ex
##ey
##ez
##ezer
##f
##fa
##face
##fair
##fall
##falls
##family
##fan
##far
##fare
##fast
##fe
##fect
##fected
##feit
##feld
##fen
##fender
##feng
##fer
##ference
##ferno
##ferred
##fest
##ff
##ffe
##ffed
##ffer
##fference
##ffin
##ffington
##ffle
##ffles
##ffling
##ffs
##ffy
##fi
##fia
##fic
##fication
##ficient
##fie
##fied
##field
##fields
##fies
##fight
##fighter
##fighting
##figured
##fill
##film
##fin
##final
##finder
##fine
##finery
##finger
##fining
##fire
##fires
##firmed
##fish
##fit
##fle
##flections
##flow
##flower
##fluenza
##fly
##fo
##fold
##foot
##force
##forcing
##ford
##form
##formed
##former
##fort
##forth
##found
##founded
##fra
##frame
##frey
##fried
##friend
##front
##ft
##fty
##fu
##ful
##fully
##function
##furbishment
##fuse
##fused
##fusion
##fy
##fying
##g
##ga
##gable
##gade
##gal
##gam
##game
##gami
##gan
##ganized
##gant
##gar
##gara
##gard
##garh
##gart
##gas
##gat
##gate
##gated
##gating
##gation
##gau
##gawa
##ge
##ged
##gel
##gelist
##gement
##gen
##gence
##gene
##generate
##genesis
##genic
##genus
##geon
##geons
##ger
##gers
##ges
##get
##gg
##gger
##ggins
##ggle
##ggy
##gh
##ghan
##ght
##ghter
##gi
##gia
##gible
##gic
##gical
##gin
##ging
##gio
##gion
##gis
##git
##glass
##gle
##gled
##gler
##gles
##gley
##gli
##glia
##gling
##gly
##gma
##gment
##gn
##gna
##gnant
##gnate
##gne
##gned
##gnesium
##gnetic
##gni
##gnition
##gno
##gnolia
##go
##gogue
##gon
##gonal
##gor
##gos
##got
##gra
##grad
##grade
##graded
##grading
##gram
##graph
##grapher
##graphers
##graphic
##graphical
##graphy
##grarian
##grass
##grating
##gration
##gratory
##gratulations
##grave
##graving
##gren
##gression
##grim
##gro
##ground
##grounds
##group
##grove
##grown
##gs
##gt
##gu
##gua
##guard
##guchi
##gue
##gues
##gum
##guous
##gus
##gy
##gé
##h
##ha
##hab
##had
##haft
##hage
##hai
##hak
##hakti
##hal
##hala
##hale
##haling
##hall
##ham
##haman
##hame
##hammer
##han
##hana
##hand
##hane
##hang
##hani
##hanna
##hao
##har
##hara
##hard
##hari
##harine
##hart
##has
##hat
##have
##haw
##hawks
##hdi
##he
##hea
##head
##headed
##heads
##heart
##hed
##hee
##heim
##hel
##held
##hell
##hem
##hen
##hend
##her
##here
##hered
##herence
##hering
##hers
##hes
##heses
##hesia
##hesion
##hesis
##hesive
##hetic
##hetical
##hetto
##hey
##hh
##hi
##hia
##hian
##hibit
##hibition
##hic
##hil
##hill
##him
##hin
##hine
##hing
##hino
##hip
##hips
##hiro
##his
##hism
##histling
##hit
##hita
##hium
##hl
##hler
##hlete
##hly
##hm
##hn
##ho
##hoe
##hof
##hog
##hogany
##hol
##hold
##holding
##hon
##hone
##hong
##hood
##hop
##hor
##hora
##hore
##horn
##horse
##hos
##hot
##hou
##hound
##house
##how
##hp
##hr
##hra
##hren
##hrill
##hropic
##hs
##ht
##hta
##hu
##hua
##hui
##hul
##hum
##human
##hur
##hurst
##hus
##hwa
##hy
##hya
##hyl
##i
##ia
##iably
##iac
##iah
##ial
##iam
##ian
##iana
##ians
##iant
##iar
##iara
##iary
##ias
##iate
##iated
##iating
##iation
##iator
##ib
##iba
##ibe
##ibel
##iber
##ibi
##ibility
##ible
##ic
##ica
##ical
##ically
##ice
##ich
##iche
##ichi
##ici
##icide
##icient
##icious
##icit
##ick
##icking
##icks
##icles
##ico
##icorn
##ics
##ict
##icted
##icular
##iculate
##icus
##id
##ida
##idae
##idal
##idas
##idated
##ide
##ided
##ider
##ides
##ido
##ids
##ie
##ied
##ief
##iek
##iel
##ield
##ien
##ience
##ienced
##iens
##ient
##ients
##ier
##iers
##ies
##iest
##iet
##ieving
##if
##ifer
##iferous
##iff
##ifiable
##ific
##ificant
##ification
##ifications
##ifice
##ified
##ifier
##ifies
##iform
##ift
##iful
##ify
##ifying
##ig
##iga
##igan
##igate
##ige
##iger
##iggs
##ight
##igi
##igma
##ign
##ignment
##igo
##ih
##ii
##ik
##ika
##ike
##iki
##iko
##il
##ila
##ilated
##ilation
##ilde
##ile
##iled
##iler
##iles
##ili
##ilia
##iliated
##iling
##ilis
##ilitating
##ilities
##ilization
##ilize
##ilized
##ilizer
##ill
##illa
##ille
##illiers
##illo
##ilo
##ils
##ilt
##ily
##im
##ima
##imate
##imated
##imating
##imator
##ime
##imeter
##immer
##imo
##ims
##imus
##in
##ina
##inal
##inate
##inated
##ination
##inator
##ind
##inda
##ine
##ined
##iner
##ines
##iness
##ing
##inga
##inger
##ingham
##ingly
##ings
##ington
##inhabited
##ini
##inian
##ining
##ink
##inn
##ino
##ins
##int
##inted
##inus
##io
##iol
##iology
##ion
##ional
##ione
##ioned
##ions
##ior
##ios
##ious
##ip
##iper
##ique
##ir
##ira
##iracy
##ire
##ired
##iri
##iring
##irk
##irn
##irs
##irt
##is
##isa
##isan
##isans
##isation
##isch
##isco
##iscovered
##ise
##ised
##iser
##isers
##ish
##ished
##ishes
##ishing
##isi
##ising
##isk
##ism
##ismic
##isms
##ison
##iss
##issa
##ist
##ister
##istic
##istice
##ists
##isław
##it
##ita
##ital
##itarian
##itas
##itate
##itated
##itating
##itation
##ite
##ited
##iter
##ites
##ith
##iti
##itic
##ities
##iting
##ition
##itive
##ito
##itor
##itrus
##its
##itt
##itte
##itting
##ittle
##itude
##iture
##ity
##itz
##itzer
##ium
##ius
##iv
##iva
##ival
##ivate
##ivated
##ivating
##ivation
##ive
##ivers
##ives
##iving
##ivision
##ivism
##ivity
##ivo
##ix
##ixel
##iya
##iz
##iza
##ization
##izations
##ize
##ized
##izer
##izes
##izing
##ière
##ić
##j
##ja
##jan
##jay
##je
##jected
##jective
##jee
##ji
##jiang
##jid
##jima
##jin
##jo
##join
##jord
##jou
##ju
##jun
##jutant
##jō
##k
##ka
##kai
##kal
##kan
##kar
##kara
##kas
##kat
##kawa
##ke
##ked
##keepers
##keeping
##kel
##kell
##ken
##kening
##ker
##kers
##kes
##ket
##key
##kh
##kha
##ki
##kick
##kie
##kill
##kim
##kin
##kind
##king
##kini
##kins
##kis
##kka
##kla
##kle
##kled
##kles
##kley
##kman
##kner
##ko
##kon
##kor
##kot
##koto
##kovic
##kra
##ks
##kt
##ku
##ky
##l
##la
##lace
##lad
##lade
##lades
##lag
##lage
##lah
##lai
##laid
##lain
##lair
##lak
##lake
##lal
##lam
##lamour
##lamp
##lan
##lana
##lance
##lanche
##land
##lands
##lane
##lang
##lani
##lank
##lant
##lanted
##lants
##lap
##lapping
##lar
##lard
##lars
##lary
##las
##lash
##lasp
##last
##lastic
##lat
##late
##lated
##lates
##lating
##lation
##lative
##lator
##latt
##lau
##laus
##lav
##law
##laws
##lax
##lay
##lberg
##ld
##lda
##lde
##lded
##lder
##lding
##ldo
##ldon
##ldred
##le
##lea
##leader
##leaf
##lean
##leashed
##lect
##led
##lee
##leen
##leg
##leigh
##lein
##lem
##lement
##lemma
##len
##lene
##lent
##leo
##ler
##lerical
##lers
##les
##less
##lessly
##lessness
##let
##lets
##lett
##lev
##lew
##lex
##ley
##lf
##lge
##li
##lia
##lial
##lian
##lic
##lica
##lication
##lice
##lich
##licing
##licit
##licity
##lick
##lid
##lide
##lie
##lient
##liers
##lies
##liest
##life
##lift
##light
##lights
##lihood
##lik
##like
##lim
##lin
##lina
##linary
##lind
##line
##lined
##lines
##ling
##lings
##lington
##lini
##lining
##linity
##link
##lins
##lint
##lio
##liography
##lip
##liptic
##lis
##lish
##lished
##lishing
##list
##listic
##lists
##lit
##lite
##lities
##lity
##litz
##lium
##liva
##lix
##lizzard
##lk
##ll
##lla
##llah
##llar
##llas
##lle
##lled
##llen
##ller
##llers
##lles
##lli
##llie
##llin
##lling
##llis
##llister
##llo
##llon
##llow
##lls
##llus
##lly
##lm
##lma
##lman
##lmer
##ln
##lo
##load
##loading
##loat
##loc
##locating
##location
##lock
##log
##logical
##logist
##logists
##logy
##lon
##lone
##long
##loom
##loop
##lop
##loping
##lops
##lor
##lord
##lore
##los
##lose
##loss
##lossom
##lot
##lou
##lous
##lov
##lover
##low
##lown
##loy
##ls
##lsson
##lt
##lta
##lterweight
##ltration
##lts
##lu
##lude
##luded
##lue
##lug
##luk
##lum
##lume
##lump
##lums
##lund
##lus
##lusion
##luster
##lut
##lution
##lve
##lves
##lvin
##lving
##ly
##lya
##lying
##lyn
##lysis
##lé
##m
##ma
##mable
##mad
##made
##mage
##maging
##mah
##mail
##maker
##making
##mal
##mamoto
##man
##mana
##mani
##mann
##manship
##mar
##mara
##mare
##marine
##mark
##marked
##market
##marks
##mas
##mash
##master
##mat
##mate
##mated
##mates
##matic
##mation
##max
##mb
##mba
##mbe
##mber
##mble
##mbo
##mbs
##me
##med
##media
##mee
##mel
##membrance
##men
##menclature
##ment
##mental
##mentary
##mentation
##ments
##mer
##mere
##mers
##mes
##met
##meter
##metric
##mett
##mi
##mia
##mian
##mic
##mie
##mile
##mill
##min
##mina
##minate
##minated
##mind
##mine
##mined
##ming
##mini
##mins
##mir
##mis
##mise
##mism
##missible
##mission
##mit
##mity
##mium
##mize
##mm
##mma
##mmal
##mme
##mmer
##mo
##mobile
##mology
##mon
##mona
##monia
##mont
##mony
##moor
##mor
##morandum
##moration
##more
##mos
##most
##mot
##mother
##moto
##mott
##mount
##mour
##mous
##mouth
##mp
##mper
##mpest
##mpo
##mps
##mpt
##mpus
##ms
##mu
##mund
##munication
##mura
##mus
##my
##mé
##n
##na
##nac
##nacle
##nagar
##nage
##nai
##naire
##nal
##nam
##name
##named
##naming
##nan
##nant
##nap
##nar
##nary
##nas
##nast
##nat
##nate
##nath
##nation
##nay
##nberg
##nc
##nce
##nces
##nch
##nched
##nchen
##ncies
##ncing
##ncy
##nd
##nda
##nde
##nded
##nden
##nder
##nding
##ndo
##nds
##ne
##nea
##neck
##nect
##ned
##neer
##nees
##nel
##nell
##nen
##nent
##ner
##ners
##nery
##nes
##nese
##ness
##net
##nett
##nex
##ney
##ng
##nge
##nger
##nges
##ngle
##ngo
##nh
##nham
##ni
##nia
##nial
##nian
##nic
##nica
##nick
##nie
##nier
##nies
##nife
##night
##nik
##nine
##ning
##nington
##nio
##nir
##nis
##nish
##nist
##nity
##nitz
##nium
##nja
##nji
##nk
##nka
##nks
##nky
##nn
##nna
##nne
##nner
##nney
##no
##nob
##nock
##non
##nor
##nos
##nosis
##not
##note
##notes
##nounce
##nous
##nova
##noy
##ns
##nse
##nsis
##nsley
##nso
##nson
##nst
##nstein
##nt
##nta
##ntal
##ntation
##nte
##nted
##ntes
##nti
##ntial
##ntin
##ntino
##nto
##nton
##nts
##nu
##num
##numbered
##nus
##nut
##nx
##ny
##nz
##nza
##ná
##o
##oa
##oam
##oan
##oast
##ob
##obbing
##obia
##oc
##ocene
##och
##ock
##ocks
##od
##oda
##ode
##odes
##odies
##ods
##odus
##oe
##of
##off
##offs
##og
##oga
##ogan
##ogen
##ogenic
##ogged
##ogies
##ogram
##ograph
##ographer
##ographic
##ography
##ogue
##oh
##oi
##oid
##oire
##ois
##oise
##ok
##oka
##oke
##oken
##oko
##ol
##ola
##olate
##old
##ole
##oli
##olic
##olio
##oll
##olm
##olo
##ological
##ologies
##ologist
##ologists
##ology
##ols
##olten
##oly
##om
##oma
##oman
##omb
##ome
##omer
##ometer
##ometric
##omi
##omorphic
##oms
##omy
##on
##ona
##onal
##ond
##onda
##one
##ones
##ong
##oni
##onia
##onic
##onies
##oning
##onium
##ono
##onomy
##ons
##ont
##ony
##oo
##ooby
##ood
##oodoo
##oof
##ook
##ool
##oom
##oon
##oop
##oor
##oos
##ooster
##oot
##op
##ope
##oper
##ops
##opsis
##opus
##or
##ora
##oral
##oran
##oration
##orax
##ord
##ordination
##ore
##ored
##ores
##orf
##organisation
##ori
##oria
##ories
##oris
##orium
##orm
##orn
##oro
##orous
##ors
##orse
##ort
##orted
##orum
##ory
##os
##osa
##ose
##oshi
##osis
##oso
##oss
##ossa
##ost
##osterone
##osy
##ot
##ota
##ote
##oted
##oter
##oters
##oth
##otherapy
##otic
##oting
##otive
##oto
##ots
##ott
##otype
##otypic
##ou
##oud
##ough
##ought
##our
##ours
##ous
##ously
##out
##outh
##outs
##oux
##ov
##ova
##ove
##over
##ović
##ovsky
##ow
##owa
##owed
##owing
##own
##ows
##owski
##ox
##oxide
##oy
##oya
##oz
##p
##pa
##pace
##pack
##pad
##page
##pair
##pal
##pan
##pants
##par
##pard
##pas
##pass
##passing
##pate
##path
##pathic
##pathy
##pating
##patrick
##pe
##pear
##pec
##pecific
##pect
##pectator
##peculative
##ped
##pel
##pelled
##pen
##pent
##per
##pers
##pert
##pes
##pet
##ph
##pha
##phe
##pher
##phere
##pheric
##phi
##phic
##phine
##phobic
##phological
##phon
##phone
##phorus
##phs
##phus
##phy
##physical
##pi
##pia
##pic
##pical
##pice
##pid
##pie
##piece
##pile
##pin
##pine
##ping
##pio
##piration
##pired
##pis
##pit
##place
##plain
##plane
##planes
##plate
##plating
##play
##ple
##pled
##pler
##plex
##plicate
##plied
##plified
##pling
##pment
##po
##point
##points
##pol
##pole
##polis
##politan
##ponents
##pont
##pool
##poon
##pop
##por
##poradic
##pore
##pores
##port
##ports
##pose
##posed
##position
##post
##pot
##powder
##power
##powered
##pox
##pp
##ppa
##ppard
##ppe
##pped
##pper
##ppy
##pra
##press
##pressed
##pressing
##pressive
##print
##prints
##prise
##proof
##pruce
##ps
##pse
##psy
##pt
##pta
##pted
##ptic
##pticism
##ption
##pton
##pts
##ptus
##pu
##published
##pur
##pus
##put
##putation
##pute
##puted
##py
##q
##qa
##qi
##qua
##quatorial
##que
##quel
##quence
##quencing
##quent
##quer
##quest
##quet
##qui
##quid
##quila
##quin
##quire
##quiries
##quis
##quished
##quisite
##quisition
##quist
##quities
##quito
##r
##ra
##rab
##rable
##rac
##race
##rack
##racker
##ractical
##raction
##rad
##rade
##rae
##rafford
##raft
##rag
##rage
##rah
##rai
##rail
##rain
##raiser
##raj
##rak
##ral
##ram
##rama
##rams
##ran
##rana
##rance
##rand
##rane
##rang
##ranged
##rani
##rank
##rano
##rant
##ranton
##rants
##rap
##raphy
##rapped
##rar
##ras
##rase
##rash
##rass
##rassed
##rat
##rate
##rated
##rates
##ratic
##rating
##ration
##rato
##rator
##raught
##rave
##raverse
##raw
##ray
##raz
##raze
##razed
##rb
##rban
##rber
##rc
##rca
##rcerer
##rch
##rchen
##rchy
##rcle
##rd
##rda
##rde
##rden
##rdes
##rdi
##rdo
##rdon
##rds
##rdy
##re
##rea
##read
##real
##rease
##reased
##reate
##reath
##reator
##reaves
##reck
##red
##ree
##reed
##reen
##reer
##reet
##regard
##rehension
##reis
##rek
##rel
##rell
##rella
##relli
##rem
##ren
##rena
##rench
##renched
##rene
##rent
##reole
##rer
##rera
##res
##resh
##reshing
##ress
##ressed
##resses
##rest
##restle
##ret
##rets
##rew
##rey
##rez
##rf
##rg
##rga
##rgan
##rge
##rgen
##rgo
##rgon
##rgy
##ri
##ria
##riad
##rial
##rian
##rians
##riated
##ric
##rica
##rical
##rice
##rich
##rick
##ricted
##rid
##rida
##ride
##ridge
##rie
##ried
##rief
##rien
##rient
##rier
##ries
##riff
##rification
##rified
##rig
##right
##rik
##rill
##rilla
##rille
##rily
##rim
##rima
##rin
##rina
##rine
##ring
##rington
##rino
##rio
##rion
##riot
##rious
##rip
##rippled
##ris
##rise
##rises
##rising
##rism
##rist
##rit
##rita
##ritable
##rite
##rites
##ritic
##rito
##rits
##rity
##ritz
##rium
##rius
##rive
##river
##rix
##riz
##rk
##rka
##rked
##rkin
##rky
##rl
##rland
##rle
##rley
##rly
##rm
##rma
##rman
##rmed
##rmon
##rms
##rn
##rna
##rne
##rned
##rner
##rno
##ro
##roa
##roach
##roads
##roats
##robe
##rock
##rocodile
##rod
##roduced
##roft
##rog
##rogate
##rogen
##rois
##rol
##roll
##rom
##roma
##rome
##ron
##rona
##rone
##ronic
##ronological
##ronology
##rons
##roo
##rook
##room
##rooms
##roon
##root
##rop
##roper
##rophe
##ropolis
##ropriation
##rops
##ros
##rose
##rot
##rote
##rots
##rou
##rouch
##rough
##rous
##rouse
##rout
##rov
##rove
##roved
##rovisation
##row
##rows
##roy
##rp
##rque
##rra
##rre
##rred
##rrel
##rrell
##rrence
##rri
##rrible
##rricular
##rrie
##rrier
##rries
##rring
##rro
##rrogance
##rrosion
##rrow
##rrows
##rry
##rs
##rsa
##rsch
##rse
##rsen
##rsey
##rsing
##rst
##rt
##rta
##rte
##rten
##rter
##rth
##rting
##rton
##rts
##ru
##ructural
##rud
##rudence
##rue
##ruff
##rug
##ruising
##ruly
##rum
##rumbling
##run
##runcated
##runch
##rung
##runk
##runner
##rup
##rus
##rush
##rust
##rva
##rve
##rvette
##rville
##rvin
##ry
##rya
##rying
##ryl
##ryo
##rz
##ré
##s
##sa
##sable
##safe
##sal
##same
##san
##sance
##sar
##sat
##sation
##saur
##saurus
##sband
##sberg
##sboro
##sburg
##sbury
##sby
##sca
##scence
##scent
##sch
##sche
##science
##sco
##scope
##scopic
##scraper
##screen
##scribed
##scription
##sdale
##se
##secration
##sect
##secutor
##sed
##see
##sel
##self
##seller
##sen
##sent
##ser
##serve
##ses
##set
##sett
##sex
##sexual
##sey
##sfield
##sh
##sha
##sham
##shan
##she
##shed
##sher
##shi
##shin
##shing
##ship
##ships
##shire
##shirt
##shore
##shu
##si
##sia
##sian
##sible
##side
##sided
##sie
##sies
##sign
##signed
##sin
##sing
##sion
##sions
##sique
##sir
##sis
##sist
##sistence
##site
##sitic
##sities
##sity
##sive
##sk
##ska
##skaya
##ske
##sket
##ski
##skin
##sko
##sky
##sla
##sle
##sler
##sley
##slow
##sm
##sma
##sman
##smatic
##smith
##smo
##smopolitan
##smos
##so
##sol
##solidate
##some
##son
##sons
##sor
##sp
##space
##span
##spect
##spective
##spense
##sper
##spersed
##spiration
##sponsible
##sport
##spur
##sque
##ss
##ssa
##sse
##ssed
##ssel
##ssent
##sser
##sses
##ssi
##ssin
##ssion
##ssler
##sso
##sson
##ssy
##st
##sta
##stable
##stabulary
##stal
##stance
##stand
##standing
##stant
##star
##stars
##state
##static
##ste
##sted
##stein
##sten
##ster
##steries
##sters
##stic
##stick
##sting
##stituted
##stituting
##sto
##stock
##ston
##stone
##stop
##storm
##stown
##stra
##stream
##stro
##structure
##sts
##sty
##su
##sui
##sul
##sume
##suming
##sumption
##sun
##sunderstanding
##sure
##sus
##suse
##sused
##sville
##sworth
##sy
##sz
##sław
##t
##ta
##table
##tad
##tag
##tage
##tah
##tai
##tail
##tain
##tains
##take
##taker
##taking
##tal
##tale
##tals
##tam
##tan
##tania
##tano
##tar
##tars
##tary
##tas
##tat
##tata
##tate
##tated
##tating
##tation
##tch
##tched
##tches
##te
##tead
##teau
##tec
##tech
##ted
##teen
##tein
##tel
##tem
##ten
##tend
##tended
##tens
##tensive
##ter
##tera
##teral
##tered
##tering
##tern
##tero
##ters
##tery
##tes
##test
##text
##tford
##th
##tha
##thal
##tham
##than
##the
##them
##theon
##ther
##thest
##thi
##thin
##throp
##ths
##thus
##ti
##tia
##tial
##tian
##tible
##tic
##tica
##tical
##tically
##tick
##tics
##ticus
##tide
##tie
##ties
##tieth
##til
##tile
##tility
##time
##tin
##tina
##tine
##tinent
##ting
##tion
##tional
##tions
##tip
##tis
##tised
##tisfaction
##tisfied
##tism
##tist
##titled
##tium
##tive
##tland
##tle
##tled
##tler
##tles
##tling
##tly
##tman
##tment
##to
##tock
##tography
##tok
##tom
##ton
##tone
##tones
##tons
##took
##tooth
##top
##topia
##tor
##toria
##tors
##tory
##tos
##tosis
##tour
##tov
##tower
##town
##tr
##tra
##track
##tract
##tracted
##traction
##trar
##tras
##trata
##trate
##tre
##tree
##tres
##tri
##tribution
##tric
##trine
##tring
##tro
##tron
##tropical
##tropy
##truct
##truction
##truder
##trusion
##try
##ts
##tsky
##tsu
##tt
##tta
##tte
##tten
##tter
##ttering
##tters
##tti
##tting
##ttle
##tto
##tts
##tty
##tu
##tuated
##tub
##tude
##tudes
##tum
##tur
##tura
##ture
##tures
##turn
##tus
##twined
##ty
##type
##tz
##té
##u
##ua
##uad
##ual
##ually
##uan
##uang
##uant
##uary
##uated
##uating
##uation
##uations
##ub
##uba
##ube
##uben
##ubi
##uc
##uca
##ucci
##uch
##uche
##uck
##uckle
##ucks
##uction
##uctive
##ud
##uda
##udd
##udder
##uddin
##ude
##uded
##udes
##udi
##uding
##udo
##uds
##ue
##ued
##uel
##uen
##uer
##uerre
##ues
##uest
##uf
##uff
##ug
##uga
##uge
##ugen
##ugh
##ught
##ughty
##ugs
##uh
##ui
##uid
##uil
##uild
##uin
##uise
##uished
##uit
##uity
##uiz
##uk
##uka
##uke
##uki
##uku
##ul
##ula
##ular
##ulata
##ulate
##ulated
##ulates
##ulating
##ulation
##ulator
##ulatory
##uld
##ule
##ules
##ulf
##uli
##ulin
##ull
##ully
##ulo
##ulon
##ulous
##ulse
##ult
##ulu
##ulum
##ulus
##um
##uma
##uman
##umba
##umble
##umbria
##ume
##umes
##umi
##uminous
##umour
##ump
##ums
##un
##una
##unch
##und
##unda
##unds
##une
##ung
##ungen
##uni
##union
##unk
##uno
##uns
##unt
##unta
##unted
##unting
##unts
##uo
##uous
##up
##upation
##upon
##ur
##ura
##urable
##urage
##ural
##uration
##ure
##ured
##uren
##urers
##ures
##urg
##urge
##urgency
##uri
##urier
##uring
##urion
##uristic
##urity
##urly
##urn
##urning
##uro
##urous
##urs
##urt
##uru
##urus
##ury
##us
##usa
##usage
##usal
##use
##used
##user
##uses
##ush
##ushing
##using
##usion
##usions
##usive
##usk
##uss
##ust
##ustic
##ut
##uta
##ute
##uted
##uter
##uters
##utes
##uth
##uti
##utile
##ution
##uto
##uts
##utter
##utz
##uve
##ux
##uxe
##uy
##uz
##uza
##ué
##v
##va
##vable
##vade
##vage
##val
##valence
##valent
##van
##vana
##vance
##vani
##vanna
##var
##vard
##varo
##vary
##vas
##vasive
##vat
##vate
##vated
##vation
##vations
##ve
##ved
##vel
##ven
##venge
##vening
##vent
##vention
##ver
##vere
##vered
##vers
##versing
##version
##versity
##vert
##verted
##ves
##vet
##vey
##vez
##vi
##via
##vial
##vian
##viation
##viator
##vic
##vice
##vich
##victed
##vide
##vie
##vier
##vies
##view
##vignon
##vik
##vili
##ville
##vin
##vina
##ving
##vington
##vio
##vior
##viour
##vious
##vir
##vis
##vise
##vision
##visor
##vity
##vić
##vo
##voc
##vocation
##vocative
##voke
##voked
##voking
##volved
##volving
##vor
##vos
##vour
##vous
##vout
##voy
##vre
##vres
##vue
##vy
##vyn
##ván
##w
##wa
##wai
##wain
##wal
##wala
##wald
##walk
##wall
##wan
##wana
##wang
##war
##wara
##ward
##ware
##warm
##wart
##was
##wash
##watch
##water
##waters
##way
##wayne
##ways
##we
##wear
##wed
##weed
##week
##weet
##wei
##weight
##weiler
##well
##wen
##wer
##wes
##wheel
##where
##while
##wi
##wich
##wick
##wicz
##wide
##wig
##will
##win
##wind
##wine
##wing
##wire
##witch
##with
##witz
##wives
##wl
##wn
##wning
##wo
##wold
##woman
##won
##wood
##woods
##work
##worked
##working
##works
##world
##worm
##worth
##worthy
##wright
##writer
##writing
##written
##wry
##ws
##wski
##wson
##wth
##wy
##wyn
##x
##xa
##xe
##xed
##xen
##xi
##xial
##xin
##xing
##xy
##y
##ya
##yah
##yal
##yam
##yama
##yan
##yana
##yang
##yard
##yas
##ych
##ycle
##yclic
##yd
##ydro
##ye
##yer
##yev
##ygiene
##yi
##ying
##yk
##yl
##yla
##ylon
##ym
##yman
##yme
##ymph
##ymphonic
##yn
##yna
##ynamic
##ynamite
##ynasties
##ync
##yne
##ynn
##ynth
##ynx
##yo
##yon
##yote
##yotes
##ype
##yper
##yr
##yra
##yre
##yres
##yric
##yrinth
##ys
##yssa
##yster
##yt
##yu
##yuan
##z
##za
##zable
##zac
##zai
##zak
##zaki
##zal
##zam
##zan
##zar
##zas
##zation
##ze
##zed
##zel
##zen
##zer
##zes
##zhi
##zhou
##zi
##zie
##zig
##zing
##zle
##zman
##zo
##zoic
##zon
##zong
##zor
##zu
##zuki
##zure
##zy
##zza
##zzi
##zzle
##zzling
##zzo
##à
##á
##áil
##án
##árez
##ás
##â
##ã
##ão
##ä
##ät
##å
##ç
##ça
##çaise
##è
##ège
##ème
##ères
##ès
##é
##ée
##éra
##érard
##ération
##és
##ê
##ë
##ël
##ì
##í
##ía
##ík
##ín
##ís
##î
##ñ
##ña
##ño
##ò
##ó
##ón
##ów
##ô
##ôme
##ône
##ö
##ø
##ú
##úl
##û
##ü
##ā
##ān
##ă
##ć
##č
##čić
##đ
##ė
##ī
##ł
##ła
##ław
##ński
##ō
##ś
##ş
##š
##ša
##ū
##ų
##ž
##ơ
##ư
##ʻ
##ʿ
##γ
##а
##е
##к
##ов
##с
##т
##я
##ص
##ل
##ن
##ه
##ḥ
##ṃ
##ṅ
##ṣ
##ṭ
##ả
##ấ
##ầ
##ắ
##ễ
##ệ
##ị
##ớ
##ử
##ỳ
##ッ
##ト
##プ
$
%
&
'
(
)
*
+
,
-
.
/
0
00
000
01
02
03
04
05
06
07
08
09
1
10
100
1000
100th
101
102
103
104
105
106
107
108
109
10th
11
110
1100
111
112
113
114
115
116
117
118
119
11th
12
120
1200
121
122
123
124
125
126
127
128
129
12th
13
130
1300
131
132
133
134
135
136
137
138
139
13th
14
140
1400
141
142
143
144
145
146
147
148
149
14th
15
150
1500
151
152
153
154
155
156
157
158
159
15th
16
160
1600
161
162
1620
163
164
1640
1642
1644
1648
165
1650
166
1660
1661
167
168
1688
1689
169
1690
16th
17
170
1700
171
1710
172
1720
173
1730
174
1740
1747
1748
175
1751
1753
1754
1755
1756
1757
1758
1759
176
1761
1763
1764
1765
1766
1767
1768
1769
177
1770
1771
1772
1773
1774
1775
1776
1777
1778
1779
178
1782
1783
1784
1785
1786
1787
1788
1789
179
1790
1791
1792
1793
1794
1795
1796
1797
1798
17th
18
180
1800
1800s
1801
1802
1803
1804
1805
1806
1807
1808
1809
181
1810
1811
1812
1813
1814
1815
1816
1817
1818
1819
182
1820
1821
1822
1823
1824
1825
1826
1827
1828
1829
183
1830
1830s
1831
1832
1833
1834
1835
1836
1837
1838
1839
184
1840
1840s
1841
1842
1843
1844
1845
1846
1847
1848
1849
185
1850
1850s
1851
1852
1853
1854
1855
1856
1857
1858
1859
186
1860
1860s
1861
1862
1863
1864
1865
1866
1867
1868
1869
187
1870
1870s
1871
1872
1873
1874
1875
1876
1877
1878
1879
188
1880
1880s
1881
1882
1883
1884
1885
1886
1887
1888
1889
189
1890
1890s
1891
1892
1893
1894
1895
1896
1897
1898
1899
18th
19
190
1900
1900s
1901
1902
1903
1904
1905
1906
1907
1908
1909
191
1910
1911
1912
1913
1914
1915
1916
1917
1918
1919
192
1920
1920s
1921
1922
1923
1924
1925
1926
1927
1928
1929
193
1930
1930s
1931
1932
1933
1934
1935
1936
1937
1938
1939
194
1940
1940s
1941
1942
1943
1944
1945
1946
1947
1948
1949
195
1950
1950s
1951
1952
1953
1954
1955
1956
1957
1958
1959
196
1960
1960s
1961
1962
1963
1964
1965
1966
1967
1968
1969
197
1970
1970s
1971
1972
1973
1974
1975
1976
1977
1978
1979
198
1980
1980s
1981
1982
1983
1984
1985
1986
1987
1988
1989
199
1990
1990s
1991
1992
1993
1994
1995
1996
1997
1998
1999
19th
1st
2
20
200
2000
2000s
2001
2002
2003
2004
2005
2006
2007
2008
2009
201
2010
2011
2012
2013
2014
2015
2016
2017
2018
2019
202
203
204
205
206
207
208
20th
21
210
211
212
213
215
216
217
218
219
21st
22
220
221
222
223
224
225
226
227
228
22nd
23
230
231
232
233
234
235
236
237
238
239
23rd
24
240
241
242
243
245
247
249
24th
25
250
251
252
253
254
255
256
257
258
25th
26
260
261
262
264
265
26th
27
270
272
275
27th
28
280
281
285
286
288
28th
29
290
295
29th
2D
2nd
3
30
300
3000
302
305
308
30th
31
310
311
312
315
316
31st
32
320
321
322
325
32nd
33
330
333
33rd
34
340
345
34th
35
350
35th
36
360
365
36th
37
370
375
37th
38
380
385
38th
39
390
395
39th
3D
3rd
4
40
400
4000
405
40th
41
410
415
41st
42
420
425
42nd
43
430
435
44
440
45
450
46
460
47
470
48
480
49
490
4th
5
50
500
5000
50th
51
512
52
520
53
54
540
55
550
56
560
57
570
58
580
59
5th
6
60
600
60s
60th
61
610
62
620
625
63
630
64
640
65
650
66
660
67
68
680
69
6th
7
70
700
70s
71
72
720
73
737
74
75
750
76
760
77
78
79
7th
8
80
800
80s
81
82
83
84
85
850
86
87
88
89
8th
9
90
900
90s
91
911
92
93
94
95
950
96
97
978
98
99
9th
:
;
<
=
>
?
@
A
AA
AAA
ABC
AC
ACC
AD
AFC
AG
AI
AIDS
AJ
AK
AL
AM
AMC
AN
AP
AR
ARIA
AS
AT
ATP
AU
Aaron
Abbey
Abbot
Abbott
Abby
Abd
Abdul
Abdullah
Abe
Aberdeen
Aboriginal
About
Above
Abraham
Abrams
Abu
Academic
Academy
According
Accordingly
Ace
Achievement
Acoustic
Across
Act
Acting
Action
Active
Activities
Actor
Actors
Actress
Acts
Ad
Ada
Adam
Adams
Additional
Additionally
Adelaide
Aden
Administration
Administrative
Administrator
Admiral
Admiralty
Adolf
Adrian
Adriatic
Adult
Adults
Advance
Advanced
Advancement
Adventure
Adventures
Advertising
Advisory
Aero
Affair
Affairs
Afghanistan
Africa
African
Africans
Afro
After
Afterward
Afterwards
Again
Against
Agatha
Age
Agency
Agent
Agents
Ages
Agnes
Agreement
Agricultural
Agriculture
Ah
Ahead
Ahmad
Ahmed
Ai
Aid
Aidan
Ain
Air
Airborne
Airbus
Aircraft
Aires
Airfield
Airlines
Airport
Airways
Akira
Al
Alabama
Alain
Alan
Alaska
Alba
Albany
Albert
Alberta
Alberto
Albion
Album
Albums
Alec
Alejandro
Aleppo
Alessandro
Alex
Alexander
Alexandra
Alexandre
Alexandria
Alexis
Alfa
Alfonso
Alfred
Algeria
Algiers
Ali
Alice
Alicia
Alien
Alison
Alive
All
AllMusic
Allah
Allan
Allegheny
Allen
Alliance
Allied
Allies
Allison
Allmusic
Alma
Almost
Alone
Along
Alongside
Alonso
Alpha
Already
Also
Alt
Alternative
Alternatively
Although
Alto
Alvarez
Alvin
Always
Am
Amanda
Amateur
Amazing
Amazon
Ambassador
Amber
Ambulance
Amendment
America
American
Americans
Americas
Ames
Amiga
Amnesty
Among
Amongst
Amor
Amos
Amsterdam
Amtrak
Amy
An
Ana
Analysis
Anand
Anatolia
Anatomy
Ancient
And
Anders
Anderson
Andes
Andhra
Andre
Andrea
Andreas
Andrew
Andrews
André
Andy
Ang
Angel
Angela
Angeles
Angelo
Angels
Anger
Angie
Anglia
Anglican
Anglo
Angola
Angry
Angus
Animal
Animals
Animation
Anita
Ann
Anna
Annals
Annapolis
Anne
Annie
Annual
Another
Antarctic
Antarctica
Anthology
Anthony
Anthropology
Anti
Antioch
Antoine
Anton
Antonio
Antony
Antrim
Antwerp
Any
Anyone
Anything
Apart
Apocalypse
Apollo
Apostles
Apostolic
Appalachian
Apparently
Appeal
Appeals
Appearances
Apple
Application
Applications
Applied
Appointed
Approximately
April
Ara
Arab
Arabia
Arabian
Arabic
Arabs
Arbor
Arcade
Arch
Archaeological
Archaeology
Archbishop
Archdiocese
Archer
Archibald
Archie
Archipelago
Architects
Architectural
Architecture
Archive
Archives
Arctic
Are
Area
Areas
Arena
Argentina
Argentine
Ari
Aria
Arizona
Ark
Arkansas
Arm
Armagh
Armand
Armed
Armenia
Armenian
Armored
Armoured
Arms
Armstrong
Army
Arnold
Around
Arrow
Arsenal
Art
Arte
Arthur
Article
Articles
Artillery
Artist
Artistic
Artists
Arts
As
Ascension
Ash
Asher
Ashes
Ashley
Ashton
Asia
Asian
Asiatic
Aside
Ask
Assault
Assembly
Assessment
Assistance
Assistant
Associate
Associated
Associates
Association
Assyrian
Aston
Astronomical
Astros
Asylum
At
Athena
Athens
Athletic
Athletics
Atkinson
Atlanta
Atlantic
Atlas
Atlético
Atomic
Attack
Attorney
Au
Aubrey
Auburn
Auckland
Audio
August
Augusta
Auguste
Augustine
Augustus
Aurora
Auschwitz
Austen
Austin
Australia
Australian
Australians
Austria
Austrian
Austro
Author
Authority
Auto
Automobile
Autumn
Ava
Avalon
Avenue
Average
Avery
Aviation
Aviv
Avon
Award
Awards
Away
Axel
Axis
Aye
Azerbaijan
Aziz
B
BA
BAFTA
BBC
BC
BCE
BMG
BMW
BP
BR
BS
BT
Ba
Baba
Babe
Babu
Baby
Babylon
Bach
Bachelor
Back
Background
Bad
Baden
Baghdad
Bahamas
Bahrain
Bahá
Bai
Bailey
Baja
Baker
Baku
Baldwin
Bali
Balkan
Balkans
Ball
Ballad
Ballet
Baltic
Baltimore
Ban
Band
Bang
Bangalore
Bangkok
Bangladesh
Bangor
Bank
Banks
Banner
Baptist
Baptiste
Bar
Barack
Barbados
Barbara
Barbie
Barcelona
Barker
Barnes
Barney
Baron
Baroness
Baroque
Barr
Barracks
Barrett
Barron
Barrow
Barry
Bart
Bartlett
Barton
Base
Baseball
Based
Basel
Basic
Basil
Basilica
Basin
Basketball
Bass
Bat
Bath
Bathurst
Batman
Battalion
Battery
Battle
Bauer
Bavarian
Bay
Bayern
Be
Beach
Bean
Bear
Beard
Bears
Beast
Beat
Beatles
Beau
Beaufort
Beaumont
Beautiful
Beauty
Beaver
Because
Beck
Becker
Bed
Bedford
Bee
Been
Beer
Beethoven
Before
Beginning
Behind
Beijing
Being
Beirut
Bel
Belfast
Belgian
Belgium
Believe
Belize
Bell
Bella
Belle
Bells
Below
Belt
Ben
Bend
Benedict
Benedictine
Bengal
Bengali
Benjamin
Bennett
Benny
Benson
Bentley
Benton
Benz
Berg
Bergen
Berger
Bergman
Berkeley
Berkshire
Berlin
Bermuda
Bern
Bernard
Bernardo
Bernie
Bernstein
Berry
Bert
Bertrand
Beside
Besides
Best
Bet
Beth
Bethany
Bethel
Bethlehem
Better
Betty
Between
Beverly
Beyoncé
Beyond
Bible
Biblical
Big
Bill
Billboard
Billie
Bills
Billy
Bin
Bing
Bingham
Biography
Biological
Biology
Birch
Bird
Birds
Birmingham
Birth
Bishop
Bishops
Bismarck
Black
Blackburn
Blackpool
Blacks
Blackwell
Blaine
Blair
Blake
Blanc
Blanche
Blaze
Blessed
Blind
Block
Blood
Bloody
Bloom
Bloomberg
Blu
Blue
Blues
Bluff
Bo
Board
Boat
Bob
Bobby
Boca
Body
Boeing
Boer
Bogotá
Bohemia
Bohemian
Boise
Bolivia
Bollywood
Bologna
Bolton
Bombay
Bon
Bonaparte
Bond
Bone
Bonnie
Boogie
Book
Booker
Books
Boom
Boone
Boots
Border
Borders
Boris
Born
Borneo
Borough
Bosnia
Bosnian
Boss
Boston
Both
Boulder
Boulevard
Bourbon
Bourne
Bournemouth
Bow
Bowen
Bowie
Bowl
Bowman
Box
Boxing
Boy
Boyd
Boyer
Boyle
Boys
Brad
Bradford
Bradley
Brady
Bragg
Brain
Bram
Branch
Brand
Brandon
Brandt
Braun
Braves
Bravo
Bray
Brazil
Brazilian
Break
Breaking
Bree
Brenda
Brendan
Brent
Brest
Breton
Brett
Brewers
Brian
Brick
Bride
Bridge
Bridges
Brien
Brigade
Brigadier
Briggs
Bright
Brighton
Bring
Brisbane
Bristol
Britain
Britannia
British
Brittany
Broad
Broadcast
Broadcasting
Broadway
Brock
Brody
Broken
Broncos
Bronx
Bronze
Brook
Brooke
Brooklyn
Brooks
Bros
Brother
Brothers
Brown
Browne
Browns
Bruce
Bruins
Bruno
Brunswick
Brussels
Bryan
Bryant
Buchanan
Bucharest
Buck
Buckingham
Buckinghamshire
Buckley
Bud
Budapest
Buddha
Buddhism
Buddhist
Buddy
Buenos
Buffalo
Buffy
Building
Buildings
Built
Bulgaria
Bulgarian
Bull
Bulldogs
Bulletin
Bulls
Bunny
Bureau
Burger
Burke
Burma
Burn
Burning
Burnley
Burns
Burr
Burt
Burton
Bury
Bus
Busch
Bush
Business
But
Butch
Butler
Butterfly
Buy
By
Byrd
Byron
Byzantine
C
CA
CB
CBE
CBS
CC
CD
CDs
CE
CEO
CH
CIA
CNN
CO
CP
CR
CS
CSI
CT
CW
Cabinet
Cable
Cade
Cadet
Caesar
Cafe
Cage
Cain
Cairns
Cairo
Cal
Calais
Calcutta
Calder
Caldwell
Caleb
Caledonia
Calendar
Calgary
California
Call
Called
Calling
Calvert
Calvin
Cam
Cambodia
Cambodian
Cambridge
Camden
Came
Camera
Cameron
Cameroon
Camille
Camp
Campaign
Campbell
Campus
Can
Canada
Canadian
Canadians
Canadiens
Canal
Canary
Canberra
Cancer
Candace
Candy
Cannes
Cannon
Canon
Canterbury
Cantonese
Canyon
Cao
Cap
Cape
Capital
Capitol
Capt
Captain
Car
Cara
Card
Cardiff
Cardinal
Cardinals
Care
Career
Carey
Caribbean
Carl
Carla
Carleton
Carlisle
Carlo
Carlos
Carlson
Carlton
Carly
Carmel
Carmen
Carmichael
Carnegie
Carnival
Carol
Carolina
Caroline
Carolyn
Carpenter
Carr
Carrie
Carrier
Carroll
Cars
Carson
Carter
Carver
Cary
Casa
Casablanca
Cascade
Case
Casey
Cash
Casimir
Casino
Cass
Cassandra
Cast
Castile
Castle
Castro
Cat
Catalan
Catalina
Category
Cathedral
Catherine
Catholic
Catholicism
Catholics
Caucasian
Cause
Cavalry
Cave
Ce
Cecil
Cecilia
Cedar
Celebration
Celebrity
Celeste
Celia
Cell
Celtic
Celtics
Cemetery
Census
Centennial
Center
Centers
Central
Centre
Centro
Century
Certain
Certainly
Certificate
Ceylon
Ch
Cha
Chad
Chain
Chairman
Challenge
Chamber
Chamberlain
Chambers
Champagne
Champion
Champions
Championship
Championships
Chan
Chance
Chancellor
Chandler
Chandra
Chang
Change
Changes
Changing
Channel
Chao
Chaos
Chapel
Chapman
Chapter
Character
Charge
Charity
Charles
Charleston
Charlie
Charlotte
Charlton
Chart
Charter
Charts
Chase
Chatham
Check
Chelsea
Cheltenham
Chemical
Chemistry
Chen
Chennai
Cherry
Chesapeake
Cheshire
Chess
Chester
Chesterfield
Chevalier
Cheyenne
Chi
Chicago
Chichester
Chief
Chiefs
Child
Children
Chile
Chilean
Chin
China
Chinese
Cho
Choice
Choir
Chorus
Chris
Christ
Christi
Christian
Christianity
Christians
Christie
Christina
Christine
Christmas
Christoph
Christophe
Christopher
Christy
Chronicle
Chronicles
Chrysler
Chu
Chuck
Chun
Chung
Church
Churches
Churchill
Cincinnati
Cinderella
Cinema
Circle
Circuit
Circus
Citadel
Cities
Citizen
Citizens
City
Ciudad
Civic
Civil
Clair
Claire
Clan
Clancy
Clapton
Clare
Clarence
Clark
Clarke
Clarkson
Class
Classic
Classical
Classics
Classification
Claude
Claudio
Claus
Clay
Clayton
Clean
Clear
Clement
Cleopatra
Clerk
Cleveland
Cliff
Clifford
Clifton
Climate
Clint
Clinton
Clive
Clock
Close
Cloud
Club
Clyde
Co
Coach
Coaches
Coal
Coalition
Coast
Coastal
Cobb
Cobra
Coca
Code
Coffee
Cohen
Coke
Col
Cola
Colby
Colchester
Cold
Cole
Coleman
Colin
Coliseum
Collection
Collections
Collector
College
Colleges
Collegiate
Collin
Collins
Colombia
Colombian
Colombo
Colonel
Colonial
Colony
Color
Colorado
Colour
Colton
Colts
Columbia
Columbus
Combat
Combined
Come
Comedy
Comes
Comet
Comic
Comics
Coming
Command
Commandant
Commander
Commanding
Commando
Commerce
Commercial
Commission
Commissioner
Commissioners
Committee
Committees
Commodore
Common
Commons
Commonwealth
Communication
Communications
Communist
Communists
Communities
Community
Como
Companies
Companion
Company
Comparative
Compared
Competition
Complete
Complex
Composer
Composition
Compton
Computer
Computing
Con
Conan
Concept
Concert
Concerto
Concord
Confederacy
Confederate
Confederation
Conference
Conflict
Congo
Congregation
Congregational
Congress
Congressional
Congressman
Connecticut
Connection
Connell
Conner
Connie
Connor
Conquest
Conrad
Consequently
Conservation
Conservative
Consider
Considering
Consolidated
Constable
Constance
Constantine
Constantinople
Constitution
Constitutional
Construction
Consul
Consumer
Contact
Contemporary
Content
Contest
Continental
Continuing
Control
Convention
Conversely
Conway
Cook
Cooke
Cool
Cooper
Cooperation
Cooperative
Copa
Cope
Copenhagen
Copper
Coral
Corbett
Core
Corey
Cork
Cornelius
Cornell
Corner
Cornish
Cornwall
Coronation
Corporate
Corporation
Corps
Corpus
Corridor
Cory
Costa
Cotton
Could
Couldn
Council
Councillor
Count
Counter
Countess
Counties
Countries
Country
County
Courage
Course
Court
Courthouse
Courtney
Courts
Cove
Covenant
Coventry
Cover
Cox
Craft
Craig
Crane
Crash
Crawford
Crazy
Creation
Creative
Credit
Credits
Creed
Creek
Crescent
Cretaceous
Crete
Crew
Crewe
Cricket
Crime
Crimean
Criminal
Crimson
Crisis
Cristina
Critical
Critics
Croatia
Croatian
Croix
Cromwell
Crosby
Cross
Crossing
Crow
Crowley
Crown
Croydon
Cruise
Crusade
Crusaders
Cruz
Cry
Crystal
Cuba
Cuban
Cubs
Cullen
Cultural
Culture
Cummings
Cunningham
Cup
Cups
Cure
Current
Currently
Curry
Curse
Curtis
Custom
Customs
Cut
Cy
Cycle
Cyclone
Cynthia
Cyprus
Cyril
Cyrillic
Cyrus
Czech
César
D
DC
DD
DE
DJ
DL
DNA
DR
DS
DSO
DVD
DVDs
Da
Dad
Daddy
Dai
Daily
Daisy
Dakota
Dal
Dale
Dallas
Daly
Dam
Damascus
Dame
Damian
Damon
Dan
Dana
Dance
Dancing
Dane
Danger
Dangerous
Dani
Daniel
Danielle
Daniels
Danish
Danny
Dante
Dar
Dare
Darius
Dark
Darkness
Darling
Darlington
Darren
Darryl
Dartmouth
Darwin
Das
Dash
Data
Database
Date
Dave
Davenport
David
Davidson
Davies
Davis
Dawn
Dawson
Day
Days
Dayton
De
Deacon
Dead
Deal
Dean
Dear
Death
Deborah
Dec
Decca
December
Decision
Declan
Declaration
Dee
Deep
Deer
Defence
Defense
Defensive
Del
Delaware
Delhi
Dell
Delta
Deluxe
Democracy
Democrat
Democratic
Democrats
Demon
Demons
Den
Denis
Denise
Denmark
Dennis
Denny
Denton
Denver
Department
Depending
Depot
Depression
Deputy
Der
Derby
Derek
Derrick
Derry
Des
Desert
Design
Designed
Designer
Desire
Desmond
Despite
Destiny
Destroyer
Det
Detachment
Detective
Detroit
Deutsche
Dev
Development
Devi
Devil
Devils
Devin
Devlin
Devon
Dexter
Dharma
Di
Diamond
Diamonds
Diana
Diane
Dick
Dickens
Dickinson
Dickson
Dictionary
Die
Died
Diego
Diet
Different
Digital
Dillon
Dimitri
Din
Dino
Diocese
Dion
Direct
Directed
Direction
Director
Directorate
Directors
Directory
Dirk
Dirty
Disaster
Disc
Disco
Discovery
Disease
Disney
Distinguished
Distribution
District
Divine
Division
Divisional
Divisions
División
Dixie
Dixon
Do
Doc
Dock
Doctor
Doctorate
Doctors
Documentary
Dodd
Dodge
Dodgers
Does
Dog
Doherty
Doing
Doll
Dollar
Dolphins
Dom
Dome
Domestic
Domingo
Dominic
Dominican
Dominion
Dominique
Don
Donald
Donaldson
Doncaster
Done
Donnell
Doo
Doom
Dora
Dorian
Doris
Dorothy
Dorset
Dot
Double
Doug
Douglas
Dove
Dover
Dow
Down
Downs
Downtown
Doyle
Dr
Draft
Dragon
Dragons
Drake
Drama
Dramatic
Draw
Drawing
Dream
Dreams
Dresden
Drew
Drive
Driver
Drivers
Driving
Drop
Drum
Dry
Du
Dual
Dub
Dubai
Dublin
Duchess
Duchy
Duck
Ducks
Dudley
Due
Duff
Duke
Dukes
Dunbar
Duncan
Dundee
Dunn
Duo
Durham
During
Dustin
Dusty
Dutch
Duty
Dwight
Dyke
Dylan
Dynamo
Dynasty
Díaz
Düsseldorf
E
EA
EC
EMI
EP
ER
ERA
ESPN
EU
Each
Eagle
Eagles
Earl
Earlier
Early
Earth
East
Easter
Eastern
Easton
Eastwood
Easy
Eat
Eaton
Echo
Economic
Economics
Economy
Ecuador
Ed
Eddie
Eddy
Eden
Edgar
Edge
Edinburgh
Edison
Edith
Editing
Edition
Editor
Edmond
Edmonton
Edmund
Edna
Edo
Eduard
Eduardo
Education
Educational
Edward
Edwards
Edwin
Effects
Egg
Egypt
Egyptian
Egyptians
Eight
Eighth
Ein
Einstein
Eisenhower
Either
El
Elaine
Elder
Eleanor
Election
Electoral
Electric
Electrical
Electricity
Electronic
Elementary
Elements
Elephant
Eleven
Elgin
Eli
Elias
Elijah
Eliot
Elisabeth
Eliza
Elizabeth
Elle
Ellen
Ellie
Ellington
Elliot
Elliott
Ellis
Elm
Elton
Elvis
Ely
Em
Emanuel
Embassy
Emerald
Emergency
Emerson
Emil
Emilio
Emily
Emirates
Emma
Emmanuel
Emmy
Emperor
Empire
Empress
Empty
En
Encyclopedia
End
Enemy
Energy
Engine
Engineer
Engineering
Engineers
England
English
Enough
Enrico
Enrique
Ensemble
Enterprise
Enterprises
Entertainment
Entry
Environment
Environmental
Epic
Episcopal
Episode
Equipment
Era
Eric
Erica
Erich
Erie
Erik
Erin
Ernest
Ernie
Ernst
Erwin
Escape
Especially
Essays
Essential
Essex
Established
Establishment
Estate
Esther
Ethiopia
Ethiopian
Eton
Eugene
Eugène
Eurasian
Euro
Europa
Europe
European
Europeans
Eva
Evaluation
Evan
Evans
Eve
Evelyn
Even
Evening
Event
Events
Eventually
Ever
Everett
Everton
Every
Everybody
Everyone
Everything
Evidence
Evil
Evolution
Ewing
Ex
Examination
Examples
Excellence
Except
Exchange
Executive
Exeter
Exit
Exodus
Expedition
Expeditionary
Experience
Experiment
Experimental
Exploration
Explorer
Expo
Exposition
Express
Expressway
External
Extra
Extreme
Eye
Eyes
Ezra
F
F1
FA
FAA
FBI
FC
FCC
FDA
FF
FIA
FIBA
FIFA
FL
FM
Face
Facebook
Faces
Factor
Factory
Faculty
Fair
Fairfax
Fairfield
Fairy
Faith
Falcon
Falcons
Fall
Fallen
Falling
Fallon
Falls
Fame
Families
Family
Famous
Fan
Fang
Fanny
Fantastic
Fantasy
Far
Farm
Farrell
Fashion
Fast
Fat
Fate
Father
Fathers
Faust
Favorite
Fay
Faye
Fe
Fear
Feast
Feature
Features
Featuring
February
Fed
Federal
Federation
Federico
Feel
Feeling
Felipe
Felix
Fellow
Fellowship
Female
Females
Fen
Fender
Ferdinand
Ferguson
Fernandez
Fernando
Fernández
Ferrari
Ferry
Festival
Fever
Few
Fi
Fiction
Field
Fielding
Fields
Fife
Fifteen
Fifth
Fifty
Fight
Fighter
Fighters
Fighting
Figure
Fiji
File
Files
Film
Filming
Films
Fin
Final
Finally
Finals
Finance
Financial
Finch
Find
Finding
Fine
Finland
Finn
Finnish
Fiona
Fire
First
Fischer
Fish
Fisher
Fisheries
Fitzgerald
Five
Flag
Flags
Flame
Flames
Flanders
Flash
Flat
Fleet
Fleetwood
Fleming
Flemish
Fletcher
Flight
Flint
Flood
Flora
Florence
Flores
Florida
Flow
Flower
Flowers
Floyd
Fly
Flying
Flynn
Focus
Folk
Follow
Following
Food
Foot
Football
For
Forbes
Force
Forces
Ford
Foreign
Forest
Forever
Forget
Forgotten
Fork
Form
Formation
Former
Formula
Forrest
Forster
Fort
Fortress
Fortunately
Fortune
Forty
Forward
Foster
Found
Foundation
Founded
Fountain
Four
Fourteen
Fourth
Fowler
Fox
Fr
France
Frances
Francesco
Francis
Franciscan
Francisco
Franco
Frank
Frankfurt
Frankie
Franklin
Franks
Franz
François
Fraser
Fred
Freddie
Frederick
Free
Freedom
Freeman
Freeway
Fremantle
French
Fresh
Fresno
Freud
Frey
Friday
Friedman
Friedrich
Friend
Friendly
Friends
Friendship
Fringe
Frog
From
Front
Frontier
Frost
Fruit
Fry
Fu
Fuel
Fuji
Fulham
Full
Fuller
Fulton
Fun
Fund
Funding
Funny
Further
Furthermore
Fury
Future
Félix
G
GA
GAA
GB
GDP
GM
GMA
GP
GT
Gabon
Gabriel
Gabrielle
Gaelic
Gaga
Gail
Gala
Galaxy
Gale
Galen
Galileo
Gallagher
Gallery
Galloway
Galway
Game
Games
Gaming
Gandhi
Gang
Gao
Gap
Garcia
García
Garden
Gardens
Gardner
Gareth
Garland
Garner
Garrett
Garrison
Garry
Garth
Gary
Gas
Gate
Gates
Gateway
Gathering
Gavin
Gay
Gaza
Gazette
Gee
Gemini
Gemma
Gen
Gender
Gene
General
Generally
Generation
Genesis
Geneva
Genevieve
Genoa
Gentleman
Gentlemen
Geoff
Geoffrey
Geographic
Geography
Geological
Georg
George
Georges
Georgetown
Georgia
Georgian
Georgie
Gerald
Gerard
Germain
German
Germans
Germany
Gerry
Gertrude
Get
Ghana
Ghost
Giacomo
Giant
Giants
Gibbons
Gibbs
Gibraltar
Gibson
Gideon
Gift
Gil
Gilbert
Giles
Gill
Gillespie
Gillian
Gilmore
Giovanni
Girl
Girls
Giuseppe
Give
Given
Giving
Glacier
Glad
Gladstone
Gladys
Glamorgan
Glasgow
Glass
Glen
Glenn
Global
Globe
Gloria
Glory
Gloucester
Gloucestershire
Go
Goa
Goal
Goals
God
Goddard
Goddess
Godfrey
Gods
Goes
Going
Gold
Goldberg
Golden
Goldman
Golf
Gomez
Gone
Gong
Gonna
Gonzalez
González
Good
Goodman
Goodwin
Google
Goose
Gordon
Gospel
Got
Gothenburg
Gothic
Gotta
Gould
Government
Governor
Governors
Grace
Gracie
Grade
Grady
Graeme
Graham
Gram
Grammar
Grammy
Gran
Granada
Grand
Grande
Grandma
Grange
Grant
Graphic
Grass
Grave
Graves
Gray
Grayson
Great
Greater
Greatest
Greco
Greece
Greek
Greeks
Green
Greenberg
Greene
Greenland
Greens
Greenwich
Greenwood
Greg
Gregg
Gregor
Gregory
Grey
Griffin
Griffith
Grimes
Grimsby
Groove
Gross
Ground
Group
Groups
Grove
Growing
Growth
Guadalupe
Guam
Guangdong
Guard
Guardian
Guards
Guatemala
Guerrero
Guest
Guide
Guild
Guillaume
Guillermo
Guinea
Guinness
Guitar
Gujarat
Gulf
Gun
Guns
Gupta
Guru
Gus
Gustav
Guthrie
Guy
Gwen
Gómez
H
HBO
HD
HIV
HM
HMS
HP
HQ
Ha
Haas
Habsburg
Had
Hague
Hai
Haifa
Hair
Haiti
Haitian
Hal
Hale
Half
Halifax
Hall
Halle
Halloween
Ham
Hamas
Hamburg
Hamilton
Hamlet
Hammond
Hampshire
Hampson
Hampton
Han
Hancock
Hand
Handel
Hands
Hang
Hank
Hanna
Hannah
Hanover
Hans
Hansen
Hanson
Hapoel
Happiness
Happy
Hara
Harald
Harbor
Harbour
Harcourt
Hard
Harding
Hardy
Hari
Harlem
Harmony
Harold
Harper
Harriet
Harrington
Harris
Harrisburg
Harrison
Harry
Hart
Hartford
Hartley
Harvard
Harvest
Harvey
Has
Hassan
Hastings
Hat
Hatch
Havana
Have
Haven
Havilland
Having
Hawaii
Hawaiian
Hawk
Hawke
Hawkins
Hawks
Hay
Hayes
Haynes
Hazel
He
Head
Headquarters
Heads
Health
Healthcare
Hear
Heart
Hearts
Heat
Heath
Heather
Heaven
Heavy
Heavyweight
Hebrew
Hector
Heidelberg
Heights
Heinrich
Heinz
Held
Helen
Helena
Helens
Hell
Hellenic
Help
Helsinki
Hemisphere
Hence
Henderson
Hendrix
Henri
Henrik
Henry
Hepburn
Her
Herald
Herb
Herbert
Here
Hereford
Heritage
Herman
Hermann
Hero
Heroes
Herr
Herrera
Hertfordshire
Herzegovina
Hewitt
Hey
Hi
Higgins
High
Higher
Highest
Highland
Highlanders
Highlands
Highway
Highways
Hilda
Hill
Hillary
Hills
Hilton
Him
Hindi
Hindu
Hinduism
Hindus
Hip
His
Hispanic
Historia
Historian
Historic
Historical
Historically
History
Hit
Hitchcock
Hitler
Hits
Ho
Hobart
Hobbs
Hockey
Hoffman
Hoffmann
Hogan
Hold
Holden
Holding
Holdings
Hole
Holiday
Holland
Hollow
Holloway
Holly
Hollywood
Holmes
Holocaust
Holt
Holy
Home
Homeland
Homer
Hon
Honda
Honduras
Honey
Hong
Honolulu
Honor
Honorary
Honors
Honour
Honourable
Honours
Hood
Hook
Hooper
Hoover
Hop
Hope
Hopkins
Hopper
Horace
Horizon
Horn
Horne
Horror
Horse
Horses
Horton
Hospital
Host
Hot
Hotel
Hotels
Houghton
Hour
House
Household
Houses
Housing
Houston
How
Howard
Howe
Howell
However
Hu
Huang
Hubbard
Hubert
Huddersfield
Hudson
Hugh
Hughes
Hugo
Hui
Hulk
Hull
Human
Humanities
Humboldt
Hume
Humphrey
Hundred
Hundreds
Hungarian
Hungarians
Hungary
Hunger
Hunt
Hunter
Hunters
Hunting
Huntington
Huron
Hurricane
Hurricanes
Hurt
Hussein
Hutchinson
Hutton
Hyde
Hyderabad
Hz
I
IAAF
IATA
IBM
ICAO
ICC
IDF
IF
IGN
II
III
IL
IN
IP
IRA
ISBN
IT
ITV
IUCN
IV
IX
Iain
Ian
Iberian
Ibn
Ibrahim
Ice
Iceland
Icelandic
Ida
Idaho
Identity
Idol
If
Igor
Il
Illinois
Illustrated
Image
Imagine
Immaculate
Immediately
Immigration
Impact
Imperial
Important
Impossible
In
Inc
Incident
Including
Incorporated
Indeed
Independence
Independent
Index
India
Indian
Indiana
Indianapolis
Indians
Indie
Indies
Indigenous
Individual
Individuals
Indo
Indonesia
Indonesian
Indoor
Industrial
Industries
Industry
Infantry
Infinity
Information
Infrastructure
Ingram
Ingrid
Initial
Initially
Initiative
Inland
Inn
Inner
Innocent
Innovation
Inquiry
Inside
Inspector
Inspired
Instead
Institute
Institutes
Institution
Insurance
Integrated
Intel
Intelligence
Inter
Interactive
Intercontinental
Interest
Interior
Intermediate
Internal
International
Internationale
Internet
Interstate
Interview
Into
Introduction
Invasion
Inverness
Investigation
Investment
Invisible
Ion
Iona
Iowa
Ipswich
Ira
Iran
Iranian
Iraq
Iraqi
Ireland
Irene
Irish
Iron
Iroquois
Irvine
Irving
Irwin
Is
Isa
Isaac
Isabel
Isabella
Isaiah
Islam
Islamic
Island
Islander
Islanders
Islands
Isle
Isles
Ismail
Israel
Israeli
Issue
Istanbul
It
Italia
Italian
Italians
Italy
Its
Ivan
Ivory
J
JP
Jack
Jackie
Jackson
Jacksonville
Jacob
Jacobs
Jacqueline
Jacques
Jade
Jaguar
Jai
Jaime
Jain
Jakarta
Jake
Jakob
Jam
Jamaica
Jamaican
Jamal
James
Jamie
Jan
Jana
Jane
Janeiro
Janet
January
Japan
Japanese
Jarvis
Jasmine
Jason
Jasper
Java
Javier
Jax
Jay
Jaya
Jays
Jazz
Je
Jean
Jeep
Jeff
Jefferson
Jeffrey
Jen
Jenkins
Jenna
Jennifer
Jennings
Jenny
Jensen
Jeremiah
Jeremy
Jericho
Jerome
Jerry
Jersey
Jerusalem
Jesse
Jessica
Jesuit
Jesuits
Jesus
Jet
Jew
Jewel
Jewish
Jews
Ji
Jill
Jim
Jimmy
Jin
Jing
Jo
Joachim
Joan
Joanna
Job
Joe
Joel
Joey
Johan
Johann
Johanna
Johannes
Johannesburg
John
Johnny
Johns
Johnson
Johnston
Johnstone
Joint
Joker
Jon
Jonas
Jonathan
Jones
Jordan
Jorge
Jose
Joseph
Josh
Joshua
Josiah
José
Journal
Journalists
Journey
Joy
Joyce
João
Jr
Ju
Juan
Jubilee
Judah
Judaism
Jude
Judge
Judicial
Judith
Judy
Jules
Julia
Julian
Julie
Julien
Juliet
Julio
Julius
July
Jump
Jun
Junction
June
Jung
Jungle
Junior
Juniors
Juno
Jupiter
Jurassic
Jury
Just
Justice
Justin
K
Ka
Kahn
Kai
Kaiser
Kamal
Kane
Kang
Kannada
Kansas
Kaplan
Kapoor
Kara
Karachi
Karen
Karin
Karl
Karnataka
Kat
Kate
Katherine
Kathleen
Katie
Katrina
Katy
Katz
Kaufman
Kay
Kazakhstan
Ke
Keeper
Keeping
Keith
Kelley
Kelly
Ken
Kendall
Kennedy
Kenneth
Kenny
Kensington
Kent
Kentucky
Kenya
Kenyan
Kern
Kerr
Kerry
Kevin
Key
Keynes
Keys
Khalid
Khan
Khmer
Ki
Kick
Kid
Kids
Kiel
Kiev
Kildare
Kilkenny
Kill
Killer
Killing
Kim
Kind
King
Kingdom
Kingdoms
Kings
Kingsley
Kingston
Kirk
Kiss
Kit
Kitchen
Kitty
Klaus
Klein
Knight
Knights
Know
Knowing
Knowledge
Knowles
Known
Knox
Ko
Kobe
Koch
Kolkata
Kong
Konrad
Korea
Korean
Koreans
Kosovo
Kota
Kraków
Kramer
Kris
Krishna
Kristen
Ku
Kuala
Kumar
Kung
Kurdish
Kurt
Kuwait
Kyle
Köppen
L
LA
LED
LLC
LP
LSU
La
Lab
Labor
Laboratories
Laboratory
Labour
Labs
Lac
Lacey
Ladies
Lady
Lafayette
Lai
Lake
Lakes
Lakshmi
Lal
Lamar
Lamb
Lambert
Lana
Lancashire
Lancaster
Lance
Land
Landing
Landmark
Lands
Lane
Lang
Lange
Langley
Language
Languages
Lanka
Lankan
Lansing
Lantern
Lao
Laos
Lara
Large
Larry
Lars
Larsen
Las
Last
Late
Later
Latin
Latino
Latvia
Lau
Lauderdale
Laughing
Launch
Laura
Laurel
Lauren
Laurence
Laurie
Lausanne
Law
Lawn
Lawrence
Laws
Lawson
Lay
Layne
Layton
Le
Lea
Lead
Leader
Leading
Leaf
Leafs
League
Leah
Learning
Leary
Leave
Leaving
Lebanese
Lebanon
Led
Lee
Leeds
Left
Legacy
Legal
Legend
Legends
Legion
Legislative
Legislature
Leicester
Leigh
Leinster
Lemon
Len
Lena
Length
Lenin
Leningrad
Lennon
Lennox
Lenny
Leo
Leon
Leonard
Leonardo
Leone
Leopold
Les
Leslie
Less
Lesser
Lester
Let
Letter
Letters
Lev
Levant
Level
Levi
Levin
Levine
Levy
Lewis
Lex
Lexington
León
Li
Lia
Liam
Liang
Libby
Liberal
Liberals
Liberation
Liberty
Library
Libya
Lie
Lies
Lieutenant
Life
Lifetime
Liga
Light
Lighthouse
Lightning
Lights
Like
Likewise
Lil
Lila
Lille
Lilly
Lily
Lim
Lima
Limerick
Limited
Lin
Lincoln
Lincolnshire
Linda
Lindsay
Lindsey
Line
Lines
Ling
Link
Linnaeus
Linux
Lion
Lionel
Lions
Lisa
Lisbon
List
Listed
Listen
Literary
Literature
Lithuania
Lithuanian
Little
Liu
Liv
Live
Liverpool
Lives
Living
Livingston
Liz
Lloyd
Lo
Local
Located
Location
Loch
Lock
Locke
Lockheed
Lodge
Logan
Logic
Loire
Lois
Lombard
London
Lone
Long
Look
Looking
Loop
Lopez
Lord
Lords
Lorenzo
Lorraine
Los
Loss
Lost
Lots
Lotus
Lou
Louis
Louise
Louisiana
Louisville
Lounge
Love
Lover
Lovers
Loves
Low
Lowe
Lowell
Lower
Loyola
Lt
Ltd
Lu
Luc
Luca
Lucas
Lucia
Luciano
Lucifer
Lucius
Lucknow
Lucky
Lucy
Ludwig
Luftwaffe
Luigi
Luis
Luke
Lulu
Lund
Luther
Lutheran
Luton
Luzon
Lviv
Lydia
Lynch
Lyndon
Lynn
Lyon
Lyons
Lyrics
Léon
López
M
M1
MA
MAC
MBA
MBE
MC
MCC
MD
MG
MGM
MI
MIT
MLA
MLB
MP
MPs
MS
MTV
MVP
MW
Ma
Mac
MacArthur
MacDonald
Maccabi
Macdonald
Mace
Macedonia
Machine
Macintosh
Mack
Mackenzie
Macmillan
Macquarie
Mad
Madagascar
Madame
Made
Madeline
Madison
Madness
Madonna
Madras
Madrid
Mae
Magazine
Magdalena
Maggie
Magic
Magnum
Magnus
Maharashtra
Mai
Maia
Maid
Mail
Main
Maine
Maintenance
Maj
Majesty
Major
Majority
Make
Maker
Makes
Making
Mal
Malawi
Malay
Malaya
Malayalam
Malaysia
Malaysian
Malcolm
Male
Males
Mali
Mall
Mallory
Malone
Malta
Maltese
Mama
Man
Management
Manager
Managing
Manchester
Mandarin
Mandy
Manfred
Manhattan
Manila
Manitoba
Mann
Manning
Manny
Manor
Mansfield
Mansion
Manson
Manual
Manuel
Manufacturing
Many
Map
Maple
Mar
Mara
Marathi
Marc
Marcel
March
Marcia
Marco
Marcos
Marcus
Mare
Margaret
Mari
Maria
Marian
Mariana
Mariano
Marie
Marilyn
Marina
Marine
Mariners
Marines
Marino
Mario
Marion
Maris
Maritime
Marjorie
Mark
Market
Marketing
Marks
Marlborough
Marley
Marquess
Marquette
Marquis
Marriage
Married
Mars
Marseille
Marsh
Marshal
Marshall
Mart
Marta
Martha
Martial
Martian
Martin
Martinez
Marty
Martín
Martínez
Marvel
Marvin
Marxist
Mary
Maryland
María
Mask
Mason
Mass
Massachusetts
Massacre
Massey
Master
Masters
Mat
Mata
Match
Material
Math
Mathews
Matilda
Matrix
Matt
Matters
Matthew
Matthews
Maud
Maureen
Maurice
Mauritius
Max
Maxim
Maximilian
Maximum
Maxwell
May
Maya
Maybe
Mayer
Maynard
Mayo
Mayor
McCain
McCarthy
McCartney
McCormick
McCoy
McDonald
McGee
McGill
McGrath
McGregor
McGuire
McKay
McKinley
McLaren
McLean
McMahon
McPherson
Me
Mead
Meadow
Meadows
Mean
Meanwhile
Meat
Mecca
Mechanical
Medal
Media
Medical
Medicine
Medieval
Mediterranean
Meet
Meeting
Meg
Mega
Megan
Mei
Mel
Melbourne
Melinda
Melody
Melvin
Member
Members
Memorial
Memories
Memory
Memphis
Men
Mendoza
Mental
Mention
Mercedes
Mercer
Mercury
Mercy
Meredith
Meridian
Merit
Merrill
Merry
Mesa
Message
Met
Metacritic
Metal
Method
Methodist
Metro
Metropolis
Metropolitan
Mets
Metz
Mexican
Mexico
Meyer
Mi
Mia
Miami
Michael
Michaels
Michel
Michele
Michelle
Michigan
Mick
Mickey
Micro
Microsoft
Mid
Middle
Middlesbrough
Middlesex
Middleton
Midland
Midlands
Midnight
Midway
Midwest
Mighty
Miguel
Mike
Mikhail
Milan
Milano
Mile
Miles
Milford
Military
Militia
Milk
Mill
Millennium
Miller
Million
Mills
Milne
Milton
Milwaukee
Mimi
Min
Mina
Mind
Mine
Ming
Minh
Mini
Minister
Ministers
Ministry
Minneapolis
Minnesota
Minor
Minsk
Mint
Minutes
Mir
Mira
Miracle
Miranda
Miriam
Mirror
Miss
Missile
Missing
Mission
Mississippi
Missouri
Mitch
Mitchell
Mix
Mixed
Mixing
Mk
Mo
Mobile
Mode
Model
Models
Modern
Moe
Mohamed
Mohammed
Mohan
Moines
Molecular
Molly
Moment
Mon
Mona
Monaco
Monastery
Monday
Money
Mongolia
Mongolian
Mongols
Monica
Monk
Monkey
Monmouth
Monroe
Monsieur
Monster
Mont
Montana
Monte
Montenegrin
Montenegro
Montgomery
Month
Monthly
Montreal
Monty
Monument
Moody
Moon
Moor
Moore
Moose
More
Moreover
Morgan
Morley
Mormon
Morning
Moroccan
Morocco
Morris
Morrison
Morrow
Mortal
Mortimer
Morton
Moscow
Moses
Mosque
Moss
Most
Mother
Motion
Motor
Motors
Motown
Mount
Mountain
Mountains
Mounted
Mouse
Mouth
Movement
Movie
Movies
Moving
Mozambique
Mozart
Mr
Mrs
Ms
Mt
Mu
Much
Mughal
Muhammad
Multi
Multiple
Mum
Mumbai
Munich
Municipal
Municipality
Munro
Munster
Murder
Murdoch
Murphy
Murray
Museum
Museums
Music
Musical
Musicians
Muslim
Muslims
Must
Mustang
Musée
My
Myers
Mysore
Māori
N
NASA
NATO
NBA
NBC
NC
NCAA
NE
NFL
NH
NHL
NHS
NL
NME
NO
NPR
NW
NWA
NY
NYC
NZ
Na
Nadia
Nadu
Nagar
Nagoya
Nah
Naked
Nam
Name
Named
Names
Nan
Nana
Nancy
Napier
Naples
Napoleon
Napoleonic
Narayan
Nash
Nashville
Nassau
Nat
Natal
Natalie
Natasha
Nate
Nathan
Nathaniel
Nation
National
Nationalist
Nations
Native
Natural
Nature
Naval
Navarro
Navigation
Navy
Nazi
Nazis
Neal
Near
Nearby
Nearly
Nebraska
Neck
Ned
Need
Nehru
Neil
Neill
Neither
Nell
Nelson
Neo
Neolithic
Nepal
Neptune
Net
Netflix
Netherlands
Network
Networks
Neumann
Nevada
Never
Nevertheless
Neville
New
Newark
Newcastle
Newfoundland
Newman
Newmarket
Newport
News
Newspaper
Newton
Next
Ng
Ni
Niagara
Niall
Nicaragua
Nice
Nicholas
Nichols
Nicholson
Nick
Nicky
Nico
Nicola
Nicolas
Nicole
Nielsen
Nigel
Nigeria
Night
Nightingale
Nightmare
Nights
Nik
Nike
Nikki
Nikola
Nile
Nina
Nine
Nintendo
Nippon
Nissan
Nix
Nixon
No
Nobel
Noble
Nobody
Noel
Noise
Nolan
Non
None
Nonetheless
Nor
Nord
Nordic
Norfolk
Normal
Normally
Norman
Normandy
Norris
Norse
North
Northampton
Northeast
Northeastern
Northern
Northumberland
Northwest
Northwestern
Norton
Norway
Norwegian
Norwich
Norwood
Not
Notable
Note
Notes
Nothing
Notre
Nottingham
Nottinghamshire
Nov
Nova
Novak
Novel
November
Novi
Now
Nr
Nuclear
Number
Numbers
Numerous
Nurse
Nursing
O
OBE
OH
OK
OR
OS
Oak
Oakland
Oaks
Obama
Observatory
Observer
Occasionally
Ocean
Oceania
Oct
October
Odessa
Odyssey
Of
Off
Offensive
Office
Officer
Officers
Official
Often
Oh
Ohio
Oil
Oilers
Ok
Okay
Okinawa
Oklahoma
Olaf
Old
Older
Oldham
Ole
Olga
Olive
Oliver
Olivia
Olivier
Olympia
Olympic
Olympics
Omaha
Oman
Omar
On
Once
One
Ones
Online
Only
Ontario
Op
Open
Opening
Opera
Operating
Operation
Operational
Operations
Opposition
Opus
Or
Oral
Orange
Orchestra
Order
Orders
Ordinary
Ordnance
Oregon
Organ
Organisation
Organization
Oricon
Orient
Oriental
Origin
Original
Originally
Origins
Orioles
Orion
Orlando
Orleans
Oro
Orthodox
Ortiz
Osaka
Osborne
Oscar
Oslo
Oswald
Other
Others
Otherwise
Ottawa
Otto
Ottoman
Ottomans
Our
Out
Outdoor
Outer
Outside
Outstanding
Oval
Over
Overall
Overseas
Owen
Own
Oxford
Oz
P
PA
PBS
PC
PD
PM
PP
PR
PS
PT
Pa
Pablo
Pace
Pacific
Pack
Pact
Paddy
Padma
Padres
Page
Paige
Pain
Painter
Painting
Paisley
Pak
Pakistan
Pakistani
Palace
Palermo
Palestine
Palestinian
Palestinians
Palm
Palmer
Pam
Pamela
Pan
Panama
Panel
Panic
Panther
Panthers
Panzer
Papa
Papal
Paper
Papua
Para
Parachute
Parade
Paradise
Paraguay
Paralympic
Paralympics
Paramount
Parents
Paris
Parish
Parisian
Park
Parker
Parkinson
Parks
Parkway
Parliament
Parliamentary
Parry
Parsons
Part
Partner
Partners
Partnership
Parts
Party
Pascal
Pasha
Pass
Passage
Passenger
Passion
Past
Pastor
Pat
Patent
Paterson
Path
Patriarch
Patricia
Patrick
Patriotic
Patrol
Patterson
Patti
Patton
Patty
Paul
Paula
Pauline
Paulo
Pavel
Pavilion
Pay
Payne
Peabody
Peace
Peak
Pearl
Pearson
Peck
Pedro
Peel
Peggy
Pen
Penelope
Penguin
Penguins
Peninsula
Penn
Pennsylvania
Penny
People
Peoples
Per
Percy
Perfect
Performance
Performing
Perhaps
Period
Perkins
Permanent
Perry
Persia
Persian
Person
Personal
Personnel
Persons
Perth
Peru
Peruvian
Pet
Pete
Peter
Peterborough
Peters
Petersburg
Peterson
Petit
Petra
Petroleum
Petty
Ph
PhD
Phantom
Phase
Phi
Phil
Philadelphia
Philharmonic
Philip
Philipp
Philippe
Philippine
Philippines
Philips
Phillies
Phillip
Phillips
Philosophical
Philosophy
Phoebe
Phoenix
Physical
Physics
Pi
Piano
Picasso
Pick
Picture
Pictures
Pie
Piece
Pier
Pierce
Pierre
Pieter
Pietro
Pig
Pike
Pilot
Pine
Pink
Pioneer
Piper
Pirate
Pirates
Pit
Pitchfork
Pitt
Pittsburgh
Pius
Place
Places
Plain
Plains
Plan
Planet
Planning
Plans
Plant
Plata
Plate
Plateau
Platform
Platinum
Plato
Play
PlayStation
Playboy
Played
Player
Players
Playing
Plaza
Pleasant
Please
Pleasure
Plus
Plymouth
Po
Pocket
Poe
Poems
Poet
Poetry
Poets
Point
Points
Poker
Pol
Poland
Polar
Pole
Poles
Police
Policy
Polish
Political
Politics
Polk
Poll
Polly
Polo
Polytechnic
Pond
Pont
Pontiac
Pony
Pool
Poole
Pop
Pope
Popular
Population
Port
Porter
Portland
Porto
Portrait
Portsmouth
Portugal
Portuguese
Post
Postal
Potomac
Potter
Pound
Powell
Power
Powers
Practice
Pradesh
Prague
Prairie
Prakash
Prasad
Pratt
Prayer
Pre
Prefecture
Preliminary
Premier
Premiership
Preparatory
Presbyterian
Present
Presents
Preservation
President
Presidential
Presidents
Presley
Press
Preston
Pretty
Prevention
Previous
Previously
Price
Pride
Priest
Primary
Prime
Prince
Princess
Princeton
Principal
Print
Prior
Priory
Prison
Private
Privy
Prix
Prize
Pro
Probably
Problems
Proceedings
Produced
Producer
Product
Production
Productions
Professional
Professor
Program
Programme
Programming
Progress
Project
Promise
Promoted
Promotion
Properties
Property
Prophet
Protected
Protection
Protestant
Protestants
Proto
Provence
Providence
Province
Provincial
Provisional
Provost
Prussia
Prussian
Psychology
Ptolemy
Public
Publications
Published
Publisher
Publishers
Publishing
Puerto
Pulitzer
Punch
Pune
Punjab
Punjabi
Punk
Pure
Purple
Put
Putnam
Pyramid
Pérez
Q
Qi
Qin
Qing
Quaker
Qualifying
Quality
Quarter
Quarterly
Quartet
Que
Quebec
Queen
Queens
Queensland
Quentin
Quest
Question
Quick
Quiet
Quinn
Quite
Qur
R
RA
RAAF
RAF
RAM
RC
RCA
RF
RFC
RIAA
RNA
ROM
RPG
RS
Ra
Rabbi
Race
Racecourse
Races
Rachel
Racing
Radar
Radical
Radio
Rae
Rafael
Rage
Rai
Raiders
Rail
Railroad
Railway
Railways
Rain
Rainbow
Raj
Raja
Rajasthan
Rally
Ralph
Ram
Rama
Ramon
Rams
Ramsay
Ramsey
Ramírez
Ramón
Rana
Ranch
Rancho
Rand
Randall
Randolph
Random
Randy
Range
Ranger
Rangers
Rank
Rankings
Rao
Raoul
Rap
Raphael
Rapid
Rapids
Rare
Rashid
Rat
Rate
Rather
Raven
Ravi
Raw
Ray
Raymond
Re
Reach
Reaching
Read
Reader
Reading
Ready
Reagan
Real
Reality
Really
Realm
Rear
Reason
Rebecca
Rebel
Rebellion
Recent
Recently
Reconnaissance
Reconstruction
Record
Recorded
Recording
Recordings
Records
Recovery
Recreation
Rector
Red
Reds
Reed
Reef
Rees
Reese
Reeve
Reference
Reform
Reformation
Reformed
Refuge
Reg
Regarding
Regardless
Regency
Regent
Regiment
Regina
Reginald
Region
Regional
Register
Regular
Regulation
Regulations
Reich
Reid
Reilly
Relations
Release
Released
Relief
Religion
Religious
Remember
Remix
Ren
Renaissance
Renault
Rene
René
Rep
Report
Reporter
Reports
Representative
Representatives
Republic
Republican
Republicans
Rescue
Research
Researchers
Reserve
Reserves
Reservoir
Residence
Resident
Residents
Resistance
Resolution
Resort
Resources
Response
Rest
Restaurant
Restoration
Results
Resurrection
Retrieved
Return
Returning
Reuben
Rev
Revelation
Revenge
Revenue
Reverend
Review
Reviews
Revival
Revolution
Revolutionary
Revue
Rex
Rey
Reyes
Reynolds
Rhine
Rhineland
Rhode
Rhodes
Rhodesia
Rhys
Rhythm
Rica
Ricardo
Rice
Rich
Richard
Richards
Richardson
Richie
Richmond
Richter
Rick
Ricky
Rico
Ride
Ridge
Riding
Ridley
Rifle
Rifles
Riga
Right
Rights
Riley
Ring
Rio
Riot
Rise
Rising
Risk
Rita
River
Rivera
Rivers
Riverside
Road
Roads
Rob
Robbie
Robert
Roberto
Roberts
Robertson
Robin
Robinson
Robot
Robson
Roche
Rochester
Rock
Rockefeller
Rocket
Rockets
Rockies
Rocks
Rocky
Rod
Rodney
Rodriguez
Rodríguez
Roger
Rogers
Rogue
Roland
Role
Rolf
Roll
Rolling
Rolls
Roma
Roman
Romanesque
Romani
Romania
Romanian
Romano
Romans
Romantic
Rome
Romeo
Romero
Romney
Ron
Ronald
Ronnie
Rookie
Room
Roosevelt
Root
Roots
Rory
Rosa
Rose
Rosemary
Rosen
Roses
Ross
Rossi
Roth
Rothschild
Rotten
Rotterdam
Rouge
Rough
Round
Rourke
Route
Rover
Rovers
Row
Rowan
Rowe
Rowland
Roxy
Roy
Royal
Royals
Royce
Rubin
Ruby
Rudolf
Rudolph
Rue
Rufus
Rugby
Ruiz
Rule
Rules
Run
Runners
Running
Rupert
Rural
Rush
Russ
Russell
Russia
Russian
Russians
Russo
Rutgers
Ruth
Rutherford
Ryan
Ryder
S
SA
SAS
SAT
SC
SD
SEC
SF
SK
SM
SMS
SP
SR
SS
ST
Sa
Sabbath
Sabine
Sachs
Sacred
Sad
Saddam
Safe
Safety
Saga
Sage
Saharan
Sai
Said
Saigon
Sailor
Saint
Saints
Sakura
Sal
Sale
Salem
Sales
Salford
Salisbury
Salle
Salmon
Salon
Salt
Salvador
Sam
Samantha
Same
Sami
Sammy
Samoa
Sampson
Samuel
San
Sand
Sanders
Sandra
Sands
Sandy
Sanford
Sang
Sanskrit
Sant
Santa
Santana
Santiago
Santo
Santos
Sara
Sarah
Sarajevo
Saratoga
Sardinia
Saskatchewan
Satan
Sato
Saturday
Saturdays
Saturn
Saudi
Saul
Saunders
Savage
Savannah
Save
Savoy
Saw
Sawyer
Saxon
Say
Sc
Scale
Scandinavia
Scandinavian
Scarborough
Scarlet
Scarlett
Scene
Scenic
Schedule
Scheme
Schmidt
Schneider
Scholar
Scholars
Scholarship
School
Schools
Schubert
Schultz
Schuster
Science
Sciences
Scientific
Scientists
Scientology
Score
Scotch
Scotia
Scotland
Scots
Scott
Scottish
Scout
Scouting
Scouts
Scream
Screen
Screenplay
Se
Sea
Seahawks
Seal
Sean
Search
Seas
Season
Seasons
Seattle
Sebastian
Second
Secondary
Secret
Secretary
Section
Sector
Security
See
Seeing
Seems
Sega
Segunda
Seine
Select
Selected
Selection
Self
Semi
Semitic
Sen
Senate
Senator
Senators
Seneca
Senegal
Senior
Sentinel
Seoul
Sep
Sept
September
Ser
Serb
Serbia
Serbian
Serbs
Serge
Sergeant
Sergio
Series
Serra
Service
Services
Session
Sessions
Set
Seth
Settlement
Seven
Seventh
Several
Severn
Seville
Sex
Sexual
Seymour
Sgt
Shade
Shadow
Shadows
Shah
Shake
Shakespeare
Shan
Shane
Shanghai
Shankar
Shannon
Sharif
Shark
Sharma
Sharon
Sharp
Sharpe
Shaun
Shaw
Shawn
She
Shea
Sheffield
Sheikh
Shelby
Sheldon
Shell
Shelley
Shelton
Shen
Shepard
Shepherd
Sheridan
Sheriff
Sherlock
Sherman
Sherwood
Shi
Shield
Shields
Shin
Ship
Shipping
Ships
Shipyard
Shirley
Shiva
Shock
Shoes
Shoot
Shop
Shore
Short
Shortly
Shot
Should
Show
Shreveport
Shrewsbury
Shrine
Shropshire
Shu
Shuttle
Si
Siberia
Siberian
Sichuan
Sicilian
Sicily
Sid
Side
Sidney
Siege
Sierra
Sign
Signal
Sikh
Silence
Silent
Silk
Silva
Silver
Similar
Similarly
Simmons
Simon
Simone
Simpson
Simpsons
Sin
Sinai
Sinatra
Since
Sinclair
Sing
Singapore
Singer
Singers
Singh
Singing
Single
Singles
Sioux
Sir
Sirius
Sister
Sisters
Sit
Site
Sites
Six
Sixteen
Sixth
Ski
Skin
Skinner
Sky
Skye
Slam
Slave
Slavic
Slayer
Sleep
Sleeping
Sloan
Slovene
Slovenia
Slow
Slowly
SmackDown
Small
Smart
Smile
Smith
Smithsonian
Smoke
Snake
Snow
So
Soap
Soccer
Social
Socialist
Societies
Society
Sociology
Soft
Software
Sol
Solar
Soldier
Soldiers
Solid
Solo
Solomon
Somali
Somalia
Some
Somebody
Somehow
Somerset
Something
Sometimes
Somewhere
Son
Song
Songs
Sonia
Sonic
Sonny
Sons
Sony
Soo
Soon
Sophia
Sophie
Soul
Sound
Sounds
Soundtrack
Source
Sources
South
Southampton
Southeast
Southeastern
Southern
Southwest
Southwestern
Sovereign
Soviet
Soviets
Sox
Spa
Space
Spain
Spaniards
Spanish
Sparks
Sparta
Spartans
Speaker
Speaking
Spears
Special
Species
Specifically
Spectrum
Speech
Speed
Spence
Spencer
Spike
Spin
Spirit
Spirits
Spiritual
Split
Spokane
Sport
Sporting
Sports
Spot
Spring
Springfield
Springs
Spy
Squad
Squadron
Square
Sr
Sri
St
Stacy
Stadium
Staff
Stafford
Stage
Stakes
Stalin
Stamford
Stan
Stand
Standard
Standards
Standing
Stanford
Stanley
Stanton
Star
Stark
Starr
Stars
Starting
State
States
Station
Stations
Statistical
Statistics
Status
Stay
Steam
Steel
Steele
Stefan
Stein
Steiner
Stella
Step
Stephan
Stephanie
Stephen
Stephens
Steps
Sterling
Stern
Steve
Steven
Stevens
Stevenson
Stevie
Stewart
Stick
Still
Sting
Stock
Stockholm
Stockton
Stoke
Stokes
Stone
Stones
Stop
Store
Stores
Stories
Storm
Story
Strait
Straits
Strand
Strange
Stranger
Strategic
Strategy
Stratford
Stream
Street
Streets
Strike
String
Strip
Strong
Structure
Stuart
Student
Students
Studies
Studio
Studios
Study
Stupid
Style
Su
Sub
Subsequent
Subsequently
Success
Such
Sudan
Suddenly
Sue
Suez
Suffolk
Sufi
Sugar
Suicide
Sul
Sullivan
Sultan
Sultanate
Sumatra
Summer
Summit
Sumner
Sun
Sundance
Sunday
Sundays
Sunderland
Sung
Sunrise
Suns
Sunset
Sunshine
Super
Superintendent
Superior
Superman
Supply
Support
Supporting
Supreme
Sur
Surface
Surrey
Survey
Survival
Survivor
Susan
Susie
Sussex
Sutherland
Sutton
Suzuki
Swamp
Swan
Swansea
Sweden
Swedish
Sweet
Swift
Swing
Swiss
Switzerland
Sword
Sydney
Sylvester
Sylvia
Symphony
Symposium
Syndicate
Syracuse
Syria
Syriac
Syrian
System
Systems
São
T
THE
TNA
TO
TV
Ta
Table
Tactical
Tad
Taft
Tag
Tai
Taiwan
Taiwanese
Take
Takes
Taking
Tale
Talent
Tales
Talk
Talking
Tall
Talmud
Tam
Tamara
Tamil
Tammy
Tampa
Tan
Tanaka
Tang
Tank
Tanya
Tanzania
Tao
Tara
Target
Task
Tasmania
Tasmanian
Taste
Tate
Tau
Tavern
Tax
Taylor
Tbilisi
Te
Teachers
Teaching
Team
Teams
Tears
Tech
Technical
Technologies
Technology
Ted
Teddy
Teen
Teenage
Tehran
Tel
Telecom
Telegraph
Telephone
Television
Tell
Telugu
Temple
Ten
Tennessee
Tennis
Teresa
Terminal
Terra
Territorial
Territories
Territory
Terror
Terrorism
Terry
Tess
Tessa
Test
Testament
Testing
Tests
Texas
Text
Thai
Thailand
Thames
Than
Thank
That
Thatcher
The
Theater
Theatre
Their
Them
Theme
Then
Theo
Theodor
Theodore
Theory
There
Thereafter
Therefore
These
They
Thing
Things
Third
Thirteen
Thirty
This
Thom
Thomas
Thompson
Thomson
Thorn
Thorne
Thoroughbred
Thorpe
Those
Though
Thought
Thousand
Thousands
Three
Through
Throughout
Thunder
Thursday
Thus
Tide
Tiger
Tigers
Tim
Time
Times
Timor
Timothy
Tin
Tina
Tiny
Titan
Titanic
Titans
Title
Tito
Titus
To
Tobacco
Tobias
Toby
Today
Todd
Together
Tokyo
Toledo
Tom
Tomas
Tomatoes
Tomb
Tommy
Tomorrow
Tong
Tonga
Toni
Tonight
Tony
Too
Top
Tor
Torah
Toro
Toronto
Torre
Torres
Tory
Total
Tottenham
Touch
Toulouse
Tour
Tourism
Tournament
Toward
Towards
Tower
Towers
Town
Towns
Townsend
Township
Toy
Toyota
Trace
Track
Tracks
Tracy
Trade
Trading
Tradition
Traditional
Traditionally
Traffic
Trail
Train
Training
Trains
Trans
Transfer
Transit
Transport
Transportation
Transylvania
Travel
Travis
Treasure
Treasury
Treatment
Treaty
Tree
Trees
Trek
Trent
Trevor
Trey
Tri
Trial
Trials
Triangle
Tribe
Tribunal
Tribune
Tribute
Trick
Trilogy
Trinidad
Trinity
Trio
Trip
Triple
Tripoli
Tristan
Triumph
Trojan
Troops
Trophy
Tropical
Trouble
Troy
Truck
True
Trust
Trustees
Truth
Try
Tsar
Tu
Tucker
Tudor
Tuesday
Tunisia
Tunnel
Turin
Turkey
Turkish
Turks
Turn
Turner
Turning
Turnpike
Turtle
Twelve
Twenty
Twenty20
Twice
Twilight
Twin
Twins
Twitter
Two
Ty
Tyler
Tyne
Type
Typhoon
Typical
Typically
Tyrone
Tyson
U
U2
UC
UCI
UCLA
UEFA
UFO
UHF
UK
UN
UNESCO
UP
US
USA
USC
USD
USS
USSR
UTC
Uganda
Uh
Ukraine
Ukrainian
Ulster
Ultimate
Ultimately
Ultra
Ulysses
Um
Un
Una
Unable
Uncle
Under
Underground
Understanding
Underwood
Unfortunately
Unified
Union
Unionist
Unit
United
Units
Unity
Universal
Universe
Universities
University
Unknown
Unlike
Until
Up
Updated
Upon
Upper
Uprising
Urban
Uruguay
Us
Use
Used
Using
Usually
Utah
Uttar
Uzbekistan
V
VC
VHS
VI
VII
VIII
Val
Vale
Valencia
Valentine
Valley
Valuable
Vampire
Van
Vance
Vancouver
Vanderbilt
Vanessa
Vargas
Variations
Variety
Various
Vatican
Vaughan
Vega
Vegas
Vehicle
Velvet
Venetian
Venezuela
Venezuelan
Venice
Venus
Veracruz
Verde
Verdi
Vermont
Vernon
Veronica
Versailles
Version
Very
Veterans
Via
Vic
Vicar
Vice
Vicente
Vickers
Victor
Victoria
Victorian
Victory
Video
Vienna
Vietnam
Vietnamese
View
Vijay
Viking
Vikings
Villa
Village
Vin
Vince
Vincent
Vinci
Viola
Violence
Virgil
Virgin
Virginia
Virtual
Viscount
Vishnu
Vision
Vista
Visual
Vita
Viva
Vladimir
Vocal
Vocals
Vogue
Voice
Voices
Vol
Volume
Volunteer
Volunteers
Von
Voyage
Voyager
W
WA
WC
WCW
WHO
WR
WWE
WWF
Wade
Wagner
Waiting
Wake
Wakefield
Wales
Walk
Walker
Walking
Wall
Wallace
Waller
Wallis
Wally
Walsh
Walt
Walter
Walters
Walton
Wan
Wanda
Wanderers
Wang
Wanna
Want
Wanted
War
Ward
Ware
Warfare
Warm
Warner
Warning
Warren
Warrior
Warriors
Wars
Warsaw
Warwick
Warwickshire
Was
Washington
Waste
Watch
Water
Waterford
Waterloo
Waters
Watkins
Watson
Watt
Watts
Wave
Way
Wayne
Ways
We
Weapons
Weather
Weaver
Web
Webb
Webber
Weber
Webster
Wedding
Wednesday
Week
Weekend
Weekly
Weeks
Wehrmacht
Wei
Weir
Weird
Weiss
Welch
Welcome
Well
Welles
Wellington
Wells
Welsh
Wembley
Wen
Wendell
Wendy
Wentworth
Were
Werner
Wes
Wesley
West
Western
Westminster
Weston
Wet
Wexford
What
Whatever
Wheel
Wheeler
When
Whenever
Where
Whereas
Whether
Which
Whig
While
Whilst
White
Whitehead
Whitman
Whitney
Who
Whole
Why
Wichita
Wide
Widow
Wife
Wight
Wii
Wikipedia
Wilcox
Wild
Wilde
Wilder
Wilderness
Wildlife
Wiley
Wilhelm
Wilkes
Wilkinson
Will
Willard
Willem
William
Williams
Willie
Willis
Wills
Wilmington
Wilson
Wiltshire
Wimbledon
Win
Winchester
Wind
Window
Windows
Windsor
Wine
Winfield
Wing
Wings
Winning
Winnipeg
Winston
Winter
Winters
Wire
Wisconsin
Wise
Wish
Witch
With
Within
Without
Witness
Wizards
Wolf
Wolfe
Wolfgang
Wolverhampton
Wolverine
Wolves
Woman
Women
Won
Wonder
Wonderland
Wood
Woodland
Woods
Woodstock
Woodward
Woody
Worcester
Worcestershire
Word
Words
Work
Workers
Working
Works
Workshop
World
Worlds
Worldwide
Worship
Worth
Would
Wren
Wrestling
Wright
Writer
Writers
Writing
Written
Wrong
Wu
Wyatt
Wyoming
X
XI
XII
XIII
XIV
XV
XVI
Xavier
Xbox
Xi
Xu
Y
Ya
Yahoo
Yale
Yamaha
Yan
Yang
Yankee
Yankees
Yao
Yard
Ye
Yeah
Year
Years
Yellow
Yes
Yet
Yiddish
Yin
Ying
Yo
Yokohama
Yong
York
Yorker
Yorkshire
You
YouTube
Young
Younger
Your
Yours
Yourself
Youth
Yu
Yuan
Yugoslav
Yugoslavia
Yukon
Yun
Yuri
Yusuf
Yves
Yvonne
Z
Zach
Zachary
Zack
Zagreb
Zambia
Zealand
Zen
Zero
Zeus
Zhang
Zhao
Zhou
Zhu
Zimbabwe
Zion
Zionist
Zoe
Zombie
Zone
Zoo
Zurich
[
[UNK]
\
]
^
`
a
abandon
abandoned
abandoning
abandonment
abbot
abbreviated
abbreviation
abdomen
abdominal
abducted
abilities
ability
able
abnormal
aboard
abolished
abolition
abortion
about
above
abroad
abrupt
abruptly
absence
absent
absolute
absolutely
absorb
absorbed
absorbing
absorption
abstract
absurd
abundance
abundant
abuse
abused
abuses
abusive
academic
academics
academy
accelerate
accelerated
acceleration
accent
accept
acceptable
acceptance
accepted
accepting
accepts
access
accessed
accessible
accession
accessories
accident
accidental
accidentally
accidents
acclaim
acclaimed
accommodate
accommodation
accompanied
accompaniment
accompany
accompanying
accomplish
accomplished
accomplishments
accord
accordance
according
accordingly
accordion
account
accountant
accounted
accounting
accounts
accreditation
accredited
accumulated
accuracy
accurate
accurately
accusation
accusations
accused
accusing
accustomed
ace
achieve
achieved
achievement
achievements
achieving
acid
acidic
acids
acknowledge
acknowledged
acknowledging
acoustic
acquaintance
acquainted
acquire
acquired
acquiring
acquisition
acquisitions
acquitted
acre
acres
acronym
across
act
acted
acting
action
actions
activate
activated
activation
active
actively
activism
activist
activists
activities
activity
actor
actors
actress
actresses
acts
actual
actually
acute
ad
adapt
adaptation
adaptations
adapted
adaptive
add
added
addiction
adding
addition
additional
additionally
additions
address
addressed
addresses
addressing
adds
adequate
adequately
adjacent
adjoining
adjust
adjusted
adjusting
adjustment
adjustments
administer
administered
administration
administrative
administrator
administrators
admiral
admiration
admire
admired
admission
admissions
admit
admits
admitted
admitting
adolescent
adopt
adopted
adopting
adoption
adorable
adorned
adult
adulthood
adults
advance
advanced
advancement
advances
advancing
advantage
advantages
advent
adventure
adventures
adverse
advertised
advertisement
advertisements
advertising
advice
advise
advised
adviser
advising
advisor
advisors
advisory
advocacy
advocate
advocated
advocates
advocating
aerial
aesthetic
aesthetics
affair
affairs
affect
affected
affecting
affection
affects
affiliate
affiliated
affiliates
affiliation
affinity
affirmed
affluent
afford
affordable
afforded
aforementioned
afraid
aft
after
aftermath
afternoon
afterward
afterwards
again
against
age
aged
agencies
agency
agenda
agent
agents
ages
aggregate
aggregator
aggression
aggressive
aggressively
aging
agitated
agitation
ago
agree
agreed
agreeing
agreement
agreements
agrees
agricultural
agriculture
ah
ahead
aid
aide
aided
aids
aim
aimed
aiming
aims
ain
air
airborne
aircraft
aired
airfield
airing
airline
airlines
airplane
airplay
airport
airports
airs
aisle
akin
al
alarm
alarmed
albeit
album
albums
alcohol
alcoholic
alert
alerted
algae
algebra
algorithm
algorithms
alien
aliens
aligned
alignment
alike
alive
all
allegations
alleged
allegedly
allegiance
alleging
alleviate
alley
alliance
allied
allies
allocated
allocation
allotted
allow
allowance
allowed
allowing
allows
alloy
ally
alma
almost
alone
along
alongside
aloud
alpha
alphabet
alpine
already
also
altar
alter
alterations
altered
altering
alternate
alternating
alternative
alternatively
although
altitude
altitudes
alto
altogether
aluminium
aluminum
alumni
always
am
amalgamated
amalgamation
amassed
amateur
amazed
amazing
ambassador
amber
ambient
ambiguous
ambition
ambitions
ambitious
ambulance
ambush
ambushed
amended
amendment
amendments
amenities
amid
amidst
amino
ammunition
among
amongst
amount
amounted
amounts
amphibious
ample
amplifier
amusement
amusing
an
anal
analog
analogous
analogy
analyses
analysis
analyst
analysts
analytical
analyze
analyzed
anatomy
ancestor
ancestors
ancestral
ancestry
anchor
anchored
ancient
and
angel
angels
anger
angered
angle
angled
angles
angrily
angry
angular
animal
animals
animated
animation
anime
ankle
annexed
anniversary
announce
announced
announcement
announcer
announces
announcing
annoyed
annoying
annual
annually
anonymous
another
answer
answered
answering
answers
ant
antagonist
antenna
anterior
anthem
anthology
anthropologist
anthropology
anti
antibodies
anticipated
anticipation
antique
antiquity
ants
anxiety
anxious
any
anybody
anymore
anyone
anything
anyway
anywhere
apart
apartheid
apartment
apartments
apex
apologize
apologized
apology
app
apparatus
apparent
apparently
appeal
appealed
appealing
appeals
appear
appearance
appearances
appeared
appearing
appears
appetite
applause
apples
appliances
applicable
applicants
application
applications
applied
applies
apply
applying
appoint
appointed
appointment
appointments
appreciate
appreciated
appreciation
apprentice
apprenticeship
approach
approached
approaches
approaching
appropriate
appropriately
approval
approve
approved
approximate
approximately
apron
aquatic
arbitrary
arbitration
arc
arcade
arch
archaeological
archaeologist
archaeologists
archaeology
archaic
archbishop
arched
arches
archipelago
architect
architects
architectural
architecture
archive
archives
are
area
areas
aren
arena
arguably
argue
argued
argues
arguing
argument
arguments
arid
arise
arises
arising
aristocracy
aristocratic
arithmetic
arm
armament
armed
armies
armor
armored
armour
armoured
arms
army
arose
around
aroused
arrange
arranged
arrangement
arrangements
arranging
array
arrest
arrested
arrests
arrival
arrive
arrived
arrives
arriving
arrogant
arrow
arrows
art
article
articles
articulated
artifact
artifacts
artificial
artillery
artist
artistic
artists
arts
artwork
artworks
as
ascended
ascending
ascent
ash
ashes
ashore
aside
ask
asked
asking
asks
asleep
aspect
aspects
asphalt
aspirations
aspiring
ass
assassin
assassinated
assassination
assassins
assault
assaulted
assaults
assemble
assembled
assemblies
assembly
assert
asserted
assertion
asserts
assess
assessed
assessing
assessment
assessments
asset
assets
assign
assigned
assignment
assignments
assigns
assist
assistance
assistant
assistants
assisted
assisting
assists
associate
associated
associates
association
associations
assume
assumed
assumes
assuming
assumption
assumptions
assurance
assure
assured
asteroid
astonished
astronaut
astronomer
astronomical
astronomy
at
ate
athlete
athletes
athletic
athletics
atmosphere
atmospheric
atom
atomic
atoms
atop
atrocities
attach
attached
attachment
attack
attacked
attacker
attackers
attacking
attacks
attain
attained
attempt
attempted
attempting
attempts
attend
attendance
attendant
attended
attendees
attending
attends
attention
attested
attic
attire
attitude
attitudes
attorney
attorneys
attract
attracted
attracting
attraction
attractions
attractive
attracts
attribute
attributed
attributes
au
auction
audible
audience
audiences
audio
audit
audition
auditioned
auditions
auditorium
augmented
aunt
auspices
authentic
authenticity
author
authored
authorised
authoritative
authorities
authority
authorization
authorized
authors
autism
auto
autobiographical
autobiography
automated
automatic
automatically
automobile
automobiles
automotive
autonomous
autonomy
autumn
aux
auxiliary
availability
available
avant
avenue
average
averaged
averages
averaging
aviation
avoid
avoided
avoiding
awaited
awaiting
award
awarded
awards
aware
awareness
away
awe
awesome
awful
awkward
axe
axes
axis
axle
b
babies
baby
bachelor
back
backbone
backdrop
backed
background
backgrounds
backing
backs
backstage
backup
backward
backwards
backyard
bacteria
bacterial
bad
badge
badly
bag
baggage
bags
bail
bait
baked
bakery
baking
balance
balanced
balancing
balcony
bald
ball
ballad
ballads
ballet
ballistic
balloon
balloons
ballot
ballots
ballroom
balls
bamboo
ban
banana
band
bandage
bands
banished
banjo
bank
banker
banking
bankrupt
bankruptcy
banks
banned
banner
banning
banquet
baptism
baptized
bar
bare
barely
barge
baritone
bark
barn
baron
barracks
barrage
barred
barrel
barrels
barren
barrier
barriers
barrister
bars
basal
base
baseball
based
baseman
basement
bases
basic
basically
basin
basins
basis
basket
basketball
bass
bassist
bat
batch
bath
bathing
bathroom
bats
batsman
battalion
battalions
batted
batter
battered
batteries
battery
batting
battle
battled
battlefield
battles
battleship
battleships
battling
bay
bays
be
beach
beaches
beacon
beads
beam
beams
beans
bear
beard
bearer
bearing
bearings
bears
beast
beat
beaten
beating
beats
beautiful
beautifully
beauty
became
because
become
becomes
becoming
bed
bedroom
beds
bee
beef
been
beer
bees
beetle
beetles
before
befriended
beg
began
begin
beginning
beginnings
begins
begun
behalf
behave
behavior
behavioral
behaviors
behaviour
behind
being
beings
belief
beliefs
believe
believed
believes
believing
bell
bells
belly
belong
belonged
belonging
belongings
belongs
beloved
below
belt
belts
ben
bench
bend
beneath
beneficial
benefit
benefited
benefits
bent
berries
berth
beside
besides
besieged
best
bestowed
bet
beta
betray
betrayal
betrayed
better
betting
between
beyond
bi
bias
biblical
bicycle
bid
bidding
bids
big
bigger
biggest
bike
bilateral
bilingual
bill
billed
billion
billionaire
bills
bin
binary
bind
binding
binds
bio
biodiversity
biographer
biographical
biographies
biography
biological
biologist
biology
bird
birds
birth
birthday
birthplace
births
bishop
bishops
bit
bite
bites
biting
bits
bitten
bitter
bitterness
bizarre
black
blackish
blacks
blacksmith
blade
blame
blamed
blank
blanket
blankets
blast
blasted
blaze
bleak
bleed
bleeding
blend
blended
blending
blessed
blessing
blew
blind
blinded
block
blockade
blocked
blocking
blocks
blog
blond
blonde
blood
bloody
blow
blowing
blown
blows
blue
blues
bluff
blunt
blur
blurred
board
boarded
boarding
boards
boasted
boat
boats
bodied
bodies
bodily
body
bodyguard
boiled
boiler
boilers
boiling
bold
bolt
bolts
bomb
bombardment
bombed
bomber
bombers
bombing
bombings
bombs
bond
bonded
bonding
bonds
bone
bones
bonus
bony
book
booked
booking
booklet
books
bookstore
boom
boost
boot
booth
boots
border
bordered
bordering
borders
bore
bored
boring
born
borne
borough
borrow
borrowed
boss
bosses
botanist
both
bothered
bottle
bottles
bottom
bought
boulders
bounce
bounced
bouncing
bound
boundaries
boundary
bounded
bounds
bout
bouts
bow
bowed
bowl
bowled
bowler
bowling
bowls
bows
box
boxer
boxes
boxing
boy
boycott
boyfriend
boys
br
bra
bracelet
bracket
brackets
brain
brake
brakes
branch
branched
branches
branching
brand
branded
branding
brands
brass
brave
bravery
breach
bread
break
breakdown
breakfast
breaking
breaks
breakthrough
breakup
breast
breasts
breath
breathing
bred
breed
breeding
breeds
breeze
brick
bricks
bride
bridge
bridges
brief
briefly
brigade
brigades
brigadier
bright
brighter
brightly
brightness
brilliant
bring
bringing
brings
broad
broadcast
broadcaster
broadcasters
broadcasting
broadcasts
broader
broadly
broke
broken
broker
bronze
brother
brothers
brought
brow
brown
brownish
brows
brush
brushed
brutal
brutality
brutally
bubble
bubbles
bucket
budget
buffalo
bug
bugs
build
builder
builders
building
buildings
builds
built
bulb
bulk
bull
bullet
bullets
bullying
bump
bunch
bundle
bunker
burden
bureau
burial
burials
buried
burn
burned
burning
burns
burnt
burst
bursts
bury
burying
bus
buses
bush
bushes
busiest
business
businesses
businessman
businessmen
bust
busy
but
butler
butt
butter
butterflies
butterfly
button
buttons
buy
buyer
buying
by
bye
bypass
c
ca
cab
cabin
cabinet
cabins
cable
cables
cadet
cadets
cafe
café
cage
cake
cakes
calcium
calculate
calculated
calculation
calculations
calendar
calf
caliber
call
called
calling
calls
calm
calming
calmly
came
cameo
camera
cameras
camouflage
camp
campaign
campaigned
campaigning
campaigns
camping
camps
campus
campuses
can
canal
canals
cancel
canceled
cancellation
cancelled
cancer
candidacy
candidate
candidates
candy
cane
cannabis
cannon
cannons
cannot
canoe
canon
canonical
canopy
cans
canvas
canyon
cap
capabilities
capability
capable
capacities
capacity
cape
capita
capital
capitalism
capitalist
capitals
capped
caps
capsule
captain
captained
captains
captive
captives
captivity
capture
captured
captures
capturing
car
caravan
carbon
card
cardboard
cardiac
cardinal
cards
care
cared
career
careers
careful
carefully
cares
caretaker
cargo
caring
carnival
carpenter
carpet
carriage
carriages
carried
carrier
carriers
carries
carry
carrying
cars
cart
cartoon
cartoonist
cartoons
cartridge
cartridges
carved
carving
carvings
case
cases
cash
casino
cassette
cast
caste
casting
castle
castles
casts
casual
casualties
cat
catalog
catalogue
catalyst
catastrophic
catch
catcher
catches
catching
catchment
categories
categorized
category
cater
catering
cathedral
cats
cattle
caught
cause
caused
causes
causing
caution
cautious
cautiously
cavalry
cave
cavern
caves
cavity
cease
ceased
ceded
ceiling
ceilings
celebrate
celebrated
celebrates
celebrating
celebration
celebrations
celebrities
celebrity
celestial
cell
cellar
cello
cells
cellular
cement
cemetery
censorship
census
cent
center
centered
centers
centimeters
centimetres
central
centralized
centre
centred
centres
cents
centuries
century
ceramic
ceramics
cereal
ceremonial
ceremonies
ceremony
certain
certainly
certainty
certificate
certification
certified
ch
chain
chains
chair
chaired
chairman
chairs
chalk
challenge
challenged
challenges
challenging
chamber
chambers
champion
champions
championship
championships
chance
chancel
chancellor
chances
change
changed
changes
changing
channel
channels
chant
chanting
chaos
chaotic
chapel
chaplain
chapter
chapters
character
characterised
characteristic
characteristics
characterization
characterized
characters
charcoal
charge
charged
charges
charging
charitable
charities
charity
charm
charming
chart
charted
charter
chartered
charting
charts
chase
chased
chasing
chassis
chat
cheap
cheaper
cheat
cheated
cheating
check
checked
checking
checks
cheek
cheer
cheerful
cheese
chef
chemical
chemicals
chemist
chemistry
cherry
chess
chest
chestnut
chewing
chick
chicken
chickens
chief
chiefly
chiefs
child
childhood
children
chill
chimney
chin
chip
chips
chloride
chocolate
choice
choices
choir
choked
choose
chooses
choosing
choral
chord
chords
choreographed
choreography
chorus
chose
chosen
chromosome
chronic
chronicle
chronicles
church
churches
churchyard
cigar
cigarette
cigarettes
cinema
cinemas
cinematographer
circa
circle
circles
circuit
circuits
circular
circulated
circulating
circulation
circumstances
circus
citation
cited
cites
cities
citing
citizen
citizens
citizenship
city
civic
civil
civilian
civilians
civilization
clad
clade
claim
claimed
claiming
claims
clan
clans
clarified
clarity
clash
clashed
clashes
class
classes
classic
classical
classics
classification
classified
classmate
classmates
classroom
classrooms
clause
claw
claws
clay
clean
cleaned
cleaner
cleaning
clear
clearance
cleared
clearer
clearing
clearly
clergy
clergyman
clerk
clever
click
clicking
client
clients
cliff
cliffs
climate
climax
climb
climbed
climbing
climbs
clinched
clinic
clinical
clinics
clip
clips
clock
clocks
clockwise
clone
close
closed
closely
closer
closes
closest
closing
closure
cloth
clothes
clothing
cloud
clouds
clown
club
clubs
clue
clues
clumsy
cluster
clusters
clutch
clutching
cm
co
coach
coached
coaches
coaching
coal
coalition
coarse
coast
coastal
coaster
coastline
coasts
coat
coated
coating
coats
cocaine
cock
cockpit
cocktail
code
coded
codes
coding
coefficient
coffee
coffin
cognitive
coherent
coil
coin
coincide
coincided
coincidence
coined
coins
cold
colder
collaborate
collaborated
collaboration
collaborations
collaborative
collaborator
collaborators
collapse
collapsed
collapsing
collar
colleague
colleagues
collect
collected
collecting
collection
collections
collective
collectively
collector
collectors
collects
college
colleges
collegiate
collided
collision
colloquially
colonel
colonial
colonies
colonists
colonization
colony
color
colored
colorful
coloring
colors
colour
coloured
colours
colt
column
columnist
columns
com
coma
comb
combat
combination
combinations
combine
combined
combines
combining
combustion
come
comeback
comedian
comedic
comedies
comedy
comes
comet
comfort
comfortable
comfortably
comic
comics
coming
command
commanded
commander
commanders
commanding
commands
commemorate
commemorated
commemorating
commemorative
commence
commenced
commencement
commended
comment
commentaries
commentary
commentator
commentators
commented
commenting
comments
commerce
commercial
commercially
commercials
commission
commissioned
commissioner
commissioners
commissioning
commissions
commit
commitment
commitments
committed
committee
committees
committing
commodities
commodity
common
commonly
communal
commune
communicate
communicated
communicating
communication
communications
communion
communism
communist
communists
communities
community
commuter
compact
companies
companion
companions
company
comparable
comparative
comparatively
compare
compared
compares
comparing
comparison
comparisons
compartment
compassion
compatibility
compatible
compelled
compelling
compensate
compensation
compete
competed
competence
competent
competes
competing
competition
competitions
competitive
competitor
competitors
compilation
compiled
compiling
complain
complained
complaining
complaint
complaints
complement
complementary
complete
completed
completely
completing
completion
complex
complexes
complexity
compliance
complicated
complications
compliment
comply
component
components
compose
composed
composer
composers
composing
composite
composition
compositions
compound
compounds
comprehend
comprehensive
compressed
compression
comprise
comprised
comprises
comprising
compromise
compromised
compulsory
computational
computer
computers
computing
comrades
con
conceal
concealed
conceded
conceived
concentrate
concentrated
concentrating
concentration
concentrations
concept
conception
concepts
conceptual
concern
concerned
concerning
concerns
concert
concerto
concerts
concession
concessions
conclude
concluded
concludes
concluding
conclusion
conclusions
concrete
concurrency
concurrent
concurrently
concussion
condemned
condition
conditional
conditioned
conditioning
conditions
condom
conduct
conducted
conducting
conductor
conducts
conference
conferences
conferred
confess
confessed
confesses
confession
confidence
confident
configuration
confined
confinement
confirm
confirmation
confirmed
confirming
confirms
confiscated
conflict
conflicting
conflicts
confluence
conform
confront
confrontation
confronted
confronts
confused
confusing
confusion
congestion
conglomerate
congregation
congregations
congress
congressional
conjecture
conjunction
connect
connected
connecting
connection
connections
connector
connects
conquer
conquered
conquest
conscience
conscious
consciously
consciousness
consecrated
consecutive
consensus
consent
consequence
consequences
consequently
conservation
conservative
consider
considerable
considerably
consideration
considered
considering
considers
consist
consisted
consistency
consistent
consistently
consisting
consists
console
consoles
consolidated
consolidation
consonants
consort
consortium
conspicuous
conspiracy
constant
constantly
constellation
constituencies
constituency
constituent
constituents
constitute
constituted
constitutes
constitution
constitutional
constraints
construct
constructed
constructing
construction
constructions
consul
consult
consultant
consultation
consulted
consulting
consume
consumed
consumer
consumers
consuming
consumption
contact
contacted
contacts
contain
contained
container
containers
containing
contains
contaminated
contamination
contemplated
contemporaries
contemporary
contempt
contender
content
contention
contents
contest
contestant
contestants
contested
contests
context
contexts
continent
continental
continents
contingent
continually
continuation
continue
continued
continues
continuing
continuity
continuous
continuously
contract
contracted
contracting
contraction
contractor
contractors
contracts
contrary
contrast
contrasted
contrasting
contrasts
contribute
contributed
contributes
contributing
contribution
contributions
contributor
contributors
control
controlled
controller
controllers
controlling
controls
controversial
controversy
convection
convened
convenience
convenient
convent
convention
conventional
conventions
convergence
conversation
conversations
conversion
convert
converted
converting
converts
convex
convey
conveyed
convict
convicted
conviction
convictions
convince
convinced
convinces
convincing
convoy
convoys
cook
cooked
cooking
cool
cooled
cooler
cooling
cooperate
cooperation
cooperative
coordinate
coordinated
coordinates
coordinating
coordination
coordinator
cop
cope
copied
copies
copper
copy
copyright
coral
cord
core
corn
corner
corners
coronation
corporate
corporation
corporations
corps
corpse
corpses
corpus
correct
corrected
correction
correctly
correlated
correlation
correspond
correspondence
correspondent
corresponding
corresponds
corridor
corridors
corrupt
corruption
cortex
cosmic
cost
costing
costly
costs
costume
costumes
cottage
cottages
cotton
could
couldn
council
councillor
councillors
councils
counsel
counseling
count
counted
counter
countered
counterpart
counterparts
counties
counting
countless
countries
country
countryside
counts
county
coup
couple
coupled
couples
courage
course
courses
court
courtesy
courtroom
courts
courtyard
cousin
cousins
cover
coverage
covered
covering
covers
covert
cow
coward
crab
crack
cracked
cracks
craft
crafted
crafts
cramped
crane
crap
crash
crashed
crashes
crashing
crater
crazy
cream
create
created
creates
creating
creation
creations
creative
creativity
creator
creators
creature
creatures
credentials
credibility
credible
credit
credited
credits
creek
creep
creepy
crest
crew
crews
cricket
cricketer
cried
cries
crime
crimes
criminal
criminals
crisis
criteria
criterion
critic
critical
critically
criticised
criticism
criticisms
criticized
criticizing
critics
critique
crop
crops
cross
crossed
crosses
crossing
crossover
crowd
crowded
crowds
crown
crowned
crucial
crude
cruel
cruelty
cruise
cruiser
cruisers
crush
crushed
crushing
crust
cry
crying
crystal
crystals
cu
cubic
cue
cuisine
culminated
culminating
cult
cultivated
cultivation
cultural
culturally
culture
cultures
cum
cumulative
cup
cups
curator
curb
cure
cured
curiosity
curious
curled
curling
currency
current
currently
currents
curriculum
curse
cursed
cursing
curtain
curve
curved
curves
curving
cushion
custody
custom
customary
customer
customers
customs
cut
cute
cuts
cutter
cutting
cycle
cycles
cycling
cyclone
cylinder
cylinders
cylindrical
d
da
dad
daddy
daily
dairy
dam
damage
damaged
damages
damaging
damn
dams
dance
danced
dancer
dancers
dances
dancing
danger
dangerous
dangerously
dangers
dangling
dans
daring
dark
darker
darkness
darling
dart
dash
data
database
date
dated
dates
dating
daughter
daughters
dawn
day
daylight
days
daytime
de
dead
deadline
deadly
deal
dealer
dealers
dealing
dealings
deals
dealt
dean
dear
death
deaths
debate
debated
debates
debating
debris
debt
debts
debut
debuted
decade
decades
decay
deceased
decent
deception
decide
decided
decides
deciding
deciduous
decision
decisions
decisive
deck
decks
declaration
declare
declared
declares
declaring
decline
declined
declining
decommissioned
decomposition
decorated
decoration
decorations
decorative
decrease
decreased
decreases
decreasing
decree
dedicated
dedication
deed
deemed
deep
deepened
deeper
deepest
deeply
deer
def
default
defeat
defeated
defeating
defeats
defect
defects
defence
defences
defend
defendant
defendants
defended
defender
defenders
defending
defense
defenses
defensive
defiance
deficit
define
defined
defines
defining
definite
definitely
definition
definitions
definitive
defunct
degradation
degree
degrees
dei
deities
deity
del
delay
delayed
delays
delegate
delegates
delegation
deleted
deliberate
deliberately
delicate
delicious
delight
delighted
deliver
delivered
delivering
delivers
delivery
della
delta
dem
demand
demanded
demanding
demands
demeanor
demise
demo
democracy
democratic
demographic
demolished
demolition
demon
demonic
demons
demonstrate
demonstrated
demonstrates
demonstrating
demonstration
demonstrations
demos
den
denial
denied
denies
denomination
denominations
denote
denoted
denotes
denounced
dense
densely
density
deny
denying
depart
departed
departing
department
departments
departure
depend
depended
dependence
dependent
depending
depends
depict
depicted
depicting
depiction
depictions
depicts
depleted
deploy
deployed
deployment
deported
deposed
deposit
deposited
deposition
deposits
depot
depressed
depression
deprived
depth
depths
deputies
deputy
der
derby
derivative
derivatives
derived
derives
des
descend
descendant
descendants
descended
descending
descends
descent
describe
described
describes
describing
description
descriptions
descriptive
desert
deserted
deserve
deserved
deserves
design
designated
designation
designed
designer
designers
designing
designs
desirable
desire
desired
desires
desk
desktop
despair
desperate
desperately
despite
dessert
destination
destinations
destined
destiny
destroy
destroyed
destroyer
destroyers
destroying
destroys
destruction
destructive
detached
detachment
detail
detailed
detailing
details
detained
detect
detected
detection
detective
detectives
detector
detention
deteriorated
determination
determine
determined
determines
determining
devastated
devastating
develop
developed
developer
developers
developing
development
developmental
developments
develops
device
devices
devil
devised
devoid
devote
devoted
devotees
devotion
di
diabetes
diagnosed
diagnosis
diagnostic
diagonal
diagram
dial
dialect
dialects
dialogue
diameter
diamond
diary
diaspora
dice
dictated
dictator
dictatorship
dictionary
did
didn
die
died
dies
diesel
diet
differ
differed
difference
differences
different
differentiate
differentiated
differentiation
differently
differing
differs
difficult
difficulties
difficulty
dig
digging
digit
digital
digitally
digits
dignity
dim
dimension
dimensional
dimensions
diminished
dining
dinner
dinosaur
dinosaurs
diocesan
diocese
dioxide
dip
diplomacy
diplomat
diplomatic
dipped
dipping
dire
direct
directed
directing
direction
directional
directions
directly
director
directorial
directors
directs
dirt
dirty
disabilities
disability
disabled
disadvantage
disagree
disagreed
disagreement
disagreements
disappear
disappearance
disappeared
disappearing
disappears
disappointed
disappointing
disappointment
disapproval
disaster
disasters
disastrous
disbanded
disc
discarded
discharge
discharged
disciple
disciples
disciplinary
discipline
disciplines
disclosed
disco
discomfort
discontinued
discount
discouraged
discourse
discover
discovered
discoveries
discovering
discovers
discovery
discrete
discretion
discrimination
discs
discuss
discussed
discusses
discussing
discussion
discussions
disease
diseases
disguise
disguised
disgust
disgusted
dish
dishes
disk
disks
dislike
disliked
dismantled
dismay
dismiss
dismissal
dismissed
disorder
disorders
dispatch
dispatched
dispersed
displaced
displacement
display
displayed
displaying
displays
disposal
disposed
disposition
dispute
disputed
disputes
disqualified
disrupt
disrupted
disruption
dissertation
dissipated
dissolution
dissolve
dissolved
distance
distances
distant
distinct
distinction
distinctive
distinctly
distinguish
distinguished
distinguishing
distorted
distortion
distract
distracted
distraction
distress
distribute
distributed
distributing
distribution
distributor
district
districts
disturbance
disturbed
disturbing
ditch
dive
diver
divers
diverse
diversion
diversity
diverted
divide
divided
divides
dividing
divine
diving
division
divisional
divisions
divorce
divorced
dizzy
do
dock
docks
doctor
doctoral
doctorate
doctors
doctrine
doctrines
document
documentaries
documentary
documentation
documented
documenting
documents
does
doesn
dog
dogs
doing
doll
dollar
dollars
dolls
domain
domains
dome
domestic
dominance
dominant
dominate
dominated
dominating
domination
don
donate
donated
donation
donations
done
dong
donor
donors
doomed
door
doors
doorway
dorm
dormitory
dorsal
dos
dose
doses
dot
dots
dotted
double
doubled
doubles
doubling
doubt
doubted
doubtful
doubts
dough
down
downed
downfall
download
downloaded
downloads
downstream
downtown
downward
dozen
dozens
draft
drafted
drafting
drag
dragged
dragging
dragon
drain
drainage
drained
draining
drains
drama
dramas
dramatic
dramatically
drank
draped
drastic
drastically
draw
drawing
drawings
drawn
draws
dread
dream
dreamed
dreaming
dreams
dress
dressed
dresses
dressing
drew
dried
drift
drifted
drifting
drill
drilled
drilling
drink
drinking
drinks
dripping
drive
driven
driver
drivers
drives
driving
drone
drop
dropped
dropping
drops
drought
drove
drown
drowned
drowning
drug
drugs
drum
drummer
drumming
drums
drunk
drunken
dry
drying
du
dual
dub
dubbed
dubious
duck
ducks
due
duel
duet
dug
duke
dull
dumb
dump
dumped
dunes
dungeon
duo
duration
during
dusk
dust
dusty
duties
duty
dwarf
dwell
dwelling
dwellings
dye
dying
dynamic
dynamics
dynasty
e
each
eager
eagerly
eagle
ear
earl
earlier
earliest
early
earn
earned
earnest
earning
earnings
ears
earth
earthquake
earthquakes
ease
eased
easier
easily
east
eastern
eastward
easy
eat
eaten
eating
eats
eccentric
ecclesiastical
echo
echoed
echoes
echoing
eclectic
eclipse
ecological
ecology
economic
economical
economically
economics
economies
economist
economy
ecosystem
ecosystems
ecstasy
ed
edge
edged
edges
edible
edit
edited
editing
edition
editions
editor
editorial
editors
educate
educated
education
educational
educators
eerie
effect
effective
effectively
effectiveness
effects
efficiency
efficient
efficiently
effort
efforts
egg
eggs
ego
eight
eighteen
eighteenth
eighth
eighty
either
ejected
el
elaborate
elastic
elbow
elder
elderly
elders
eldest
elect
elected
election
elections
electoral
electorate
electors
electric
electrical
electricity
electrified
electro
electromagnetic
electron
electronic
electronics
electrons
elegant
element
elemental
elementary
elements
elephant
elevated
elevation
elevations
elevator
eleven
eleventh
eligibility
eligible
eliminate
eliminated
eliminating
elimination
elite
elongated
else
elsewhere
elves
em
email
embarked
embarrassed
embarrassing
embarrassment
embassy
embedded
emblem
embrace
embraced
embroidered
emerge
emerged
emergence
emergency
emerges
emerging
emeritus
emigrated
emigration
eminent
emission
emissions
emitted
emotion
emotional
emotionally
emotions
emperor
emphasis
emphasize
emphasized
emphasizes
emphasizing
empire
employ
employed
employee
employees
employer
employers
employing
employment
employs
emptied
empty
en
enable
enabled
enables
enabling
enacted
enclosed
enclosure
encoded
encoding
encompassed
encompasses
encompassing
encounter
encountered
encounters
encourage
encouraged
encouragement
encourages
encouraging
end
endangered
ended
endemic
ending
endings
endless
endorsed
endorsement
endowed
endowment
ends
endurance
endure
endured
enduring
enemies
enemy
energetic
energy
enforce
enforced
enforcement
engage
engaged
engagement
engagements
engages
engaging
engine
engined
engineer
engineered
engineering
engineers
engines
engraved
enhance
enhanced
enhancing
enjoy
enjoyable
enjoyed
enjoying
enjoyment
enjoys
enlarged
enlisted
enormous
enough
enraged
enrolled
enrollment
ensemble
ensembles
enslaved
ensued
ensuing
ensure
ensured
ensures
ensuring
enter
entered
entering
enterprise
enterprises
enters
entertain
entertained
entertaining
entertainment
enthusiasm
enthusiastic
enthusiasts
entire
entirely
entirety
entities
entitled
entity
entrance
entrances
entrepreneur
entrepreneurs
entries
entrusted
entry
envelope
environment
environmental
environments
envisioned
envy
enzyme
enzymes
epic
epidemic
episcopal
episode
episodes
epithet
eponymous
equal
equality
equally
equals
equation
equilibrium
equipment
equipped
equivalent
er
era
erase
erased
erect
erected
erection
eroded
erosion
erotic
erratic
error
errors
erupted
eruption
es
escape
escaped
escapes
escaping
escort
escorted
escorting
especially
espionage
essay
essays
essence
essential
essentially
est
establish
established
establishes
establishing
establishment
establishments
estate
estates
esteem
estimate
estimated
estimates
estuary
et
etc
etched
eternal
ethical
ethics
ethnic
ethnicity
euro
euros
evacuate
evacuated
evacuation
evaluate
evaluated
evaluating
evaluation
evangelical
eve
even
evening
evenings
evenly
event
events
eventual
eventually
ever
evergreen
every
everybody
everyday
everyone
everything
everywhere
evidence
evidenced
evident
evidently
evil
evolution
evolutionary
evolve
evolved
evolving
ex
exact
exactly
exaggerated
exam
examination
examinations
examine
examined
examines
examining
example
examples
exams
excavated
excavation
excavations
exceed
exceeded
exceeding
exceeds
excelled
excellence
excellent
except
exception
exceptional
exceptionally
exceptions
excess
excessive
exchange
exchanged
exchanges
excited
excitement
exciting
exclaimed
exclude
excluded
excluding
exclusion
exclusive
exclusively
excuse
execute
executed
executing
execution
executions
executive
executives
exempt
exemption
exercise
exercised
exercises
exhaled
exhaust
exhausted
exhaustion
exhibit
exhibited
exhibiting
exhibition
exhibitions
exhibits
exile
exiled
exist
existed
existence
existing
exists
exit
exited
exiting
exits
exotic
expand
expanded
expanding
expands
expansion
expect
expectation
expectations
expected
expecting
expects
expedition
expeditions
expelled
expenditure
expense
expenses
expensive
experience
experienced
experiences
experiencing
experiment
experimental
experimentation
experimented
experimenting
experiments
expert
expertise
experts
expired
explain
explained
explaining
explains
explanation
explanations
explicit
explicitly
explode
exploded
exploding
exploit
exploitation
exploited
exploits
exploration
explore
explored
explorer
explorers
explores
exploring
explosion
explosions
explosive
explosives
export
exported
exports
expose
exposed
exposing
exposure
express
expressed
expresses
expressing
expression
expressions
expressive
expressway
expulsion
exquisite
extant
extend
extended
extending
extends
extension
extensions
extensive
extensively
extent
exterior
external
extinct
extinction
extra
extract
extracted
extraction
extraordinary
extreme
extremely
eye
eyebrows
eyed
eyelids
eyes
f
fabric
fabricated
facade
face
faced
faces
facial
facilitate
facilitated
facilities
facility
facing
fact
faction
factions
facto
factor
factories
factors
factory
facts
faculties
faculty
fade
faded
fading
fail
failed
failing
fails
failure
failures
faint
fair
fairies
fairly
fairy
faith
faithful
fake
fall
fallen
falling
falls
false
falsely
fame
famed
familiar
families
family
famine
famous
famously
fan
fancy
fangs
fans
fantasies
fantastic
fantasy
far
fare
farewell
farm
farmer
farmers
farming
farmland
farms
farther
fascinated
fascinating
fascination
fascist
fashion
fashionable
fashioned
fast
faster
fastest
fat
fatal
fatalities
fate
father
fathers
fatigue
fatty
fault
faults
fauna
favor
favorable
favored
favorite
favorites
favors
favour
favourable
favoured
favourite
façade
fear
feared
fearful
fearing
fears
feasible
feast
feat
feather
feathers
feature
featured
features
featuring
fed
federal
federation
fee
feed
feedback
feeding
feeds
feel
feeling
feelings
feels
fees
feet
fell
fellow
fellows
felt
female
females
feminine
feminist
fence
fences
fencing
feral
ferry
fertile
fertility
festival
festivals
festivities
fetch
feud
feudal
fever
few
fewer
fi
fiber
fibers
fibre
fiction
fictional
fictitious
field
fielded
fielding
fields
fierce
fiercely
fiery
fifteen
fifteenth
fifth
fifty
fight
fighter
fighters
fighting
fights
figure
figured
figures
file
filed
files
filing
fill
filled
filling
fills
filly
film
filmed
filming
filmmaker
filmmakers
films
filter
filtered
filtering
filthy
fin
final
finale
finalists
finalized
finally
finals
finance
financed
finances
financial
financially
financing
find
finding
findings
finds
fine
fined
finely
fines
finest
finger
fingers
finish
finished
finishes
finishing
finite
fins
fire
firearms
fired
fires
fireworks
firing
firm
firmly
firms
first
firstly
fiscal
fish
fisheries
fishermen
fishes
fishing
fist
fit
fitness
fits
fitted
fitting
five
fix
fixed
fixing
fixture
fixtures
fl
flag
flags
flagship
flame
flames
flank
flanked
flanks
flap
flare
flared
flash
flashback
flashes
flashing
flat
flatly
flats
flattened
flavor
flaws
fled
flee
fleeing
flees
fleet
flesh
flew
flexibility
flexible
flick
flies
flight
flights
flip
flipped
flirting
float
floated
floating
flock
flood
flooded
flooding
floods
floor
floors
flora
floral
flour
flourish
flourished
flow
flowed
flower
flowering
flowers
flowing
flown
flows
flu
fluent
fluid
fluids
flung
fluorescent
flushed
flute
flux
fly
flying
focal
focus
focused
focuses
focusing
fog
foil
fold
folded
folding
folds
foliage
folk
folklore
follow
followed
follower
followers
following
follows
fond
font
food
foods
fool
foolish
foot
footage
football
footballer
foothills
footing
footsteps
for
forbidden
force
forced
forces
forcibly
forcing
fore
forecast
forefront
forehead
foreign
foreigners
foremost
forensic
forest
forested
forestry
forests
forever
forge
forged
forget
forgetting
forgive
forgiveness
forgotten
fork
form
formal
formally
format
formation
formations
formats
formed
former
formerly
formidable
forming
forms
formula
formulated
formulation
fort
forth
forthcoming
fortification
fortifications
fortified
fortress
forts
fortunate
fortune
fortunes
forty
forum
forums
forward
forwards
fossil
fossils
foster
fought
foul
found
foundation
foundations
founded
founder
founders
founding
fountain
four
fourteen
fourteenth
fourth
fox
fraction
fracture
fractured
fragile
fragment
fragments
frame
framed
frames
framework
framing
franchise
franchises
frantically
fraud
freak
free
freed
freedom
freeing
freelance
freely
freestyle
freeway
freeze
freezing
freight
frequencies
frequency
frequent
frequented
frequently
frescoes
fresh
freshman
freshwater
friction
fried
friend
friendly
friends
friendship
frigate
frigates
frightened
frightening
fringe
frog
frogs
from
front
frontal
fronted
frontier
frontman
fronts
froze
frozen
fruit
fruits
frustrated
frustration
ft
fuck
fucking
fuel
fueled
fuels
fulfill
fulfilled
fulfilling
full
fullback
fully
fumble
fumbled
fun
function
functional
functionality
functioned
functioning
functions
fund
fundamental
funded
funding
fundraising
funds
funeral
fungi
fungus
funk
funny
fur
furious
furiously
furnished
furniture
further
fused
fuselage
fusion
future
für
g
gable
gag
gain
gained
gaining
gains
gal
galaxies
galaxy
galleries
gallery
gallons
gambling
game
gameplay
games
gaming
gamma
gang
gangs
gangster
gap
gaps
garage
garbage
garde
garden
gardens
garments
garnered
garrison
gas
gases
gasoline
gate
gates
gateway
gather
gathered
gathering
gatherings
gauge
gave
gay
gaze
gear
geared
gel
gender
gene
genera
general
generally
generals
generate
generated
generates
generating
generation
generations
generator
generators
generic
generous
genes
genetic
genetically
genetics
genius
genome
genre
genres
gentle
gentleman
gentlemen
gently
genuine
genuinely
genus
geographic
geographical
geographically
geography
geologic
geological
geologist
geology
geometry
gesture
gestures
get
gets
getting
ghost
ghosts
giant
giants
gift
gifted
gifts
gig
gigantic
gigs
girl
girlfriend
girls
give
given
gives
giving
glacial
glacier
glaciers
glad
glance
glancing
glands
glass
glasses
glazed
glider
gliding
glimpse
global
globally
globe
glorious
glory
glossy
gloves
glow
glowing
glucose
glued
go
goal
goalkeeper
goals
goaltender
goat
goats
god
goddess
gods
goes
going
gold
golden
golf
golfer
gone
gonna
good
goodbye
goods
gorgeous
gospel
gossip
got
gothic
gotta
gotten
govern
governance
governed
governing
government
governmental
governments
governor
governors
gown
grab
grabbed
grabbing
grace
graceful
grade
graded
grades
gradient
gradual
gradually
graduate
graduated
graduates
graduating
graduation
graffiti
grain
grains
grammar
grams
grand
grandchildren
granddaughter
grandfather
grandmother
grandparents
grandson
granite
grant
granted
granting
grants
grape
grapes
graph
graphic
graphical
graphics
graphs
grasp
grasped
grasping
grass
grasses
grassland
grassy
grateful
gratitude
grave
gravel
graves
graveyard
gravitational
gravity
gray
grazing
great
greater
greatest
greatly
greedy
green
greenish
greeted
grenade
grenades
grew
grey
grid
grief
grin
grinding
grip
gripping
grocery
groin
groom
groove
gross
grossed
grossing
ground
groundbreaking
grounded
grounds
groundwater
group
grouped
grouping
groups
grove
grow
growing
growling
grown
grows
growth
guarantee
guaranteed
guarantees
guard
guarded
guardian
guarding
guards
gubernatorial
guerrilla
guess
guessed
guest
guests
guidance
guide
guided
guidelines
guides
guiding
guilt
guilty
guitar
guitarist
guitars
gum
gun
gunfire
guns
gunshot
gut
guy
guys
gym
h
ha
habit
habitat
habitats
habits
had
hadn
hail
hailed
hair
haired
hairs
hairy
half
halftime
halfway
hall
halls
halt
halted
halves
hamlet
hammer
hampered
hand
handed
handful
handing
handkerchief
handle
handled
handles
handling
hands
handsome
handwriting
hang
hangar
hanged
hanging
hangs
happen
happened
happening
happens
happily
happiness
happy
harassment
harbor
harbour
hard
hardcore
hardcover
hardened
harder
hardest
hardly
hardness
hardware
hardwood
harm
harmful
harmless
harmonic
harmonica
harmony
harsh
harshly
harvest
harvested
harvesting
has
hasn
hastily
hat
hatch
hate
hated
hates
hatred
hats
haul
hauled
haunted
haunting
have
haven
having
hawk
hay
hazard
hazardous
haze
he
head
headache
headed
header
heading
headline
headlines
headmaster
headquartered
headquarters
heads
heal
healing
health
healthcare
healthy
hear
heard
hearing
hearings
hears
heart
hearted
hearth
hearts
heat
heated
heating
heaven
heavenly
heavens
heavier
heavily
heavy
heavyweight
heck
hectare
hectares
hedge
heel
heels
height
heightened
heights
heir
heirs
held
helicopter
helicopters
hell
helm
helmet
helmets
help
helped
helpful
helping
helpless
helps
hem
hemisphere
hence
her
herb
herbs
herd
here
hereditary
heritage
hero
heroes
heroic
heroin
heroine
hers
herself
hesitant
hesitate
hesitated
hi
hiatus
hid
hidden
hide
hideous
hides
hiding
hierarchy
high
higher
highest
highlight
highlighted
highlighting
highlights
highly
highway
highways
hiking
hill
hills
hillside
hilly
him
himself
hind
hint
hinted
hints
hip
hire
hired
hiring
his
hiss
historian
historians
historic
historical
historically
histories
history
hit
hits
hitter
hitting
ho
hockey
hold
holder
holders
holding
holdings
holds
hole
holes
holiday
holidays
hollow
holy
homage
home
homeland
homeless
homes
hometown
homosexual
homosexuality
honest
honesty
honey
honeymoon
honor
honorable
honorary
honored
honoring
honors
honour
honoured
honours
hood
hooded
hook
hooked
hooks
hop
hope
hoped
hopeful
hopefully
hopes
hoping
horizon
horizontal
horizontally
hormone
hormones
horn
horns
horrible
horrific
horrified
horror
horse
horseback
horsepower
horses
hospital
hospitality
hospitals
host
hostage
hostages
hosted
hostess
hostile
hostilities
hostility
hosting
hosts
hot
hotel
hotels
hour
hours
house
housed
household
households
housekeeper
houses
housing
how
however
hp
hub
hug
huge
hugging
hull
hum
human
humanitarian
humanities
humanity
humans
humble
humid
humidity
humiliation
humor
humorous
humour
hundred
hundreds
hung
hunger
hungry
hunt
hunted
hunter
hunters
hunting
hurdles
hurling
hurricane
hurt
hurting
husband
husbands
hybrid
hydraulic
hydroelectric
hydrogen
hymn
hymns
hypothesis
i
iOS
iTunes
ibn
ice
icon
iconic
icons
icy
id
idea
ideal
ideals
ideas
identical
identification
identified
identifies
identify
identifying
identities
identity
ideological
ideology
idle
idol
if
ignorance
ignorant
ignore
ignored
ignoring
ii
il
ill
illegal
illegally
illegitimate
illness
illuminated
illumination
illusion
illustrate
illustrated
illustration
illustrations
illustrator
im
image
imagery
images
imaginary
imagination
imagine
imagined
imaging
imagining
imitation
immediate
immediately
immense
immensely
immigrant
immigrants
immigrated
immigration
imminent
immortal
immortality
immune
immunity
imp
impact
impacted
impacts
impaired
impatient
impending
imperial
implement
implementation
implemented
implementing
implements
implicated
implications
implied
implies
imply
implying
import
importance
important
importantly
imported
imports
impose
imposed
imposing
impossible
impress
impressed
impression
impressions
impressive
imprint
imprisoned
imprisonment
improve
improved
improvement
improvements
improving
improvised
impulse
in
inability
inactivated
inactive
inadequate
inadvertently
inappropriate
inaugural
inaugurated
inauguration
incapable
incarcerated
incarnation
incentive
inception
inch
inches
incidence
incident
incidents
inclination
inclined
include
included
includes
including
inclusion
inclusive
income
incoming
incomplete
inconsistent
incorporate
incorporated
incorporates
incorporating
incorporation
incorrect
incorrectly
increase
increased
increases
increasing
increasingly
incredible
incredibly
incumbent
incurred
indeed
indefinitely
independence
independent
independently
index
indicate
indicated
indicates
indicating
indication
indicator
indicators
indicted
indie
indigenous
indirect
indirectly
individual
individually
individuals
indoor
induce
induced
inducted
induction
industrial
industrialist
industries
industry
ineffective
ineligible
inequality
inevitable
inevitably
inexpensive
infamous
infancy
infant
infantry
infants
infected
infection
infections
infectious
inferior
infinite
inflammation
inflammatory
inflation
inflicted
influence
influenced
influences
influential
influx
inform
informal
informally
information
informed
informing
informs
infrared
infrastructure
infringement
ing
ingredient
ingredients
inhabit
inhabitants
inhabited
inhaled
inherent
inherit
inheritance
inherited
inhibitor
initial
initially
initials
initiate
initiated
initiation
initiative
initiatives
injection
injunction
injured
injuries
injuring
injury
injustice
ink
inland
inlet
inmates
inn
inner
inning
innings
innocence
innocent
innovation
innovations
innovative
input
inputs
inquiry
ins
insane
inscribed
inscription
inscriptions
insect
insects
insert
inserted
insertion
inside
insight
insights
insignia
insist
insisted
insistence
insisting
insists
inspect
inspected
inspection
inspiration
inspire
inspired
inspiring
instability
install
installation
installations
installed
installing
installment
instance
instances
instant
instantly
instead
instinct
instinctively
instincts
institute
instituted
institutes
institution
institutional
institutions
instructed
instruction
instructions
instructor
instructors
instrument
instrumental
instrumentation
instruments
insufficient
insulin
insult
insulted
insulting
insults
insurance
insurgents
intact
intake
integral
integrate
integrated
integrating
integration
integrity
intellectual
intellectuals
intelligence
intelligent
intend
intended
intending
intends
intense
intensely
intensified
intensity
intensive
intent
intention
intentional
intentionally
intentions
inter
interact
interacting
interaction
interactions
interactive
intercept
intercepted
interception
interceptions
interchange
intercourse
interest
interested
interesting
interests
interface
interfere
interference
interfering
interim
interior
interiors
intermediate
intermittent
internal
internally
international
internationally
internet
internship
interpret
interpretation
interpretations
interpreted
interpreter
interred
interrupt
interrupted
intersection
intersects
interval
intervals
intervene
intervened
intervention
interview
interviewed
interviews
intimacy
intimate
intimidating
into
intricate
intrigued
intriguing
intrinsic
intro
introduce
introduced
introduces
introducing
introduction
invade
invaded
invaders
invading
invalid
invasion
invasions
invasive
invented
invention
inventions
inventor
inventory
inverted
invest
invested
investigate
investigated
investigating
investigation
investigations
investigative
investigator
investigators
investing
investment
investments
investors
invisible
invitation
invite
invited
invites
inviting
involve
involved
involvement
involves
involving
inward
ion
ions
iron
ironic
irony
irrational
irregular
irrelevant
irrigation
irritation
is
island
islands
isn
isolated
isolation
issue
issued
issues
issuing
it
italics
item
items
its
itself
ivory
j
jack
jacket
jackets
jagged
jail
jailed
jam
jammed
jar
jaw
jaws
jazz
jealous
jealousy
jersey
jet
jets
jewel
jewellery
jewelry
jewels
ji
job
jobs
jockey
join
joined
joining
joins
joint
jointly
joints
joke
joked
jokes
joking
journal
journalism
journalist
journalists
journals
journey
journeys
joy
judge
judged
judgement
judges
judgment
judicial
judiciary
juice
jump
jumped
jumper
jumping
jumps
junction
jungle
junior
junk
jurisdiction
jurisdictions
jurist
jury
just
justice
justification
justified
justify
juvenile
k
kHz
kW
ka
keel
keen
keep
keeper
keeping
keeps
kept
key
keyboard
keyboards
keys
kg
kick
kicked
kicker
kicking
kicks
kid
kidnap
kidnapped
kidnapping
kidney
kids
kill
killed
killer
killing
killings
kills
kilograms
kilometer
kilometers
kilometre
kilometres
kin
kinase
kind
kindergarten
kindly
kindness
kinds
king
kingdom
kingdoms
kings
kiss
kissed
kisses
kissing
kit
kitchen
kits
km
kn
knee
kneeling
knees
knew
knife
knight
knighted
knights
knit
knives
knock
knocked
knocking
knockout
knocks
knot
knots
know
knowing
knowledge
known
knows
l
la
lab
label
labeled
labelled
labels
labor
laboratories
laboratory
laborers
labour
laced
lack
lacked
lacking
lacks
lad
ladder
laden
ladies
lady
laid
lair
lake
lakes
lame
lamp
lamps
lance
land
landed
landfall
landing
landings
landmark
landmarks
landowner
landowners
lands
landscape
landscapes
landslide
lane
lanes
language
languages
lantern
lap
laps
large
largely
larger
largest
larvae
las
laser
lashes
last
lasted
lasting
lasts
late
lately
later
lateral
latest
latitude
latter
lattice
laude
laugh
laughed
laughing
laughs
laughter
launch
launched
launcher
launches
launching
lavish
law
lawn
laws
lawsuit
lawsuits
lawyer
lawyers
lay
layer
layered
layers
laying
layout
lays
lazy
lb
le
lead
leader
leaders
leadership
leading
leads
leaf
league
leagues
leak
leaked
leaking
lean
leaned
leaning
leans
leap
leaping
leapt
learn
learned
learning
learns
learnt
lease
leased
least
leather
leave
leaves
leaving
lecture
lecturer
lectures
led
ledge
left
leg
legacy
legal
legally
legend
legendary
legends
legged
legislation
legislative
legislators
legislature
legitimacy
legitimate
legs
leisure
lemon
lend
lending
length
lengths
lengthy
lens
lenses
lent
leopard
les
lesbian
less
lesser
lesson
lessons
let
lethal
lets
letter
letters
letting
level
leveled
levels
lever
leverage
liability
liable
liaison
liberal
liberated
liberation
liberties
liberty
libraries
library
libretto
licence
license
licensed
licenses
licensing
lie
lies
lieu
lieutenant
life
lifeless
lifelong
lifestyle
lifetime
lift
lifted
lifting
light
lighter
lighthouse
lighting
lightly
lightning
lights
lightweight
like
liked
likelihood
likely
likes
likewise
liking
limb
limbs
lime
limestone
limit
limitation
limitations
limited
limiting
limits
limp
line
lineage
linear
linebacker
lined
linen
liner
lines
lineup
lingering
linguist
linguistic
lining
link
linked
linking
links
lion
lions
lip
lips
lipstick
liquid
liquor
list
listed
listen
listened
listener
listeners
listening
listing
lists
lit
liter
literacy
literal
literally
literary
literature
litigation
litre
litter
littered
little
live
lived
lively
liver
lives
livestock
living
lizard
ll
lo
load
loaded
loading
loads
loan
loaned
loans
lobby
lobbying
lobe
lobes
local
localities
locality
localized
locally
locals
locate
located
location
locations
lock
locked
locker
locks
lodge
lodged
log
logging
logic
logical
logistics
logo
logs
lone
loneliness
lonely
long
longer
longest
longing
longitude
longitudinal
longtime
look
looked
looking
looks
looming
loop
loops
loose
loosely
lord
lords
los
lose
loser
loses
losing
loss
losses
lost
lot
lots
lottery
loud
louder
loudly
lounge
love
loved
lovely
lover
lovers
loves
loving
low
lower
lowered
lowering
lowest
lowland
loyal
loyalty
luck
lucky
lucrative
luggage
lumber
lunar
lunch
lung
lungs
lure
lush
lust
luxurious
luxury
lying
lyric
lyrical
lyrics
m
ma
mac
machine
machinery
machines
mad
made
madness
magazine
magazines
magic
magical
magician
magistrate
magnet
magnetic
magnificent
magnitude
maid
maiden
mail
main
mainland
mainline
mainly
mainstream
maintain
maintained
maintaining
maintains
maintenance
major
majority
majors
make
maker
makers
makes
makeshift
makeup
making
malaria
male
males
mall
mammals
man
manage
managed
management
manager
managers
manages
managing
mandate
mandated
mandatory
mandolin
maneuver
maneuvers
manga
manifest
manipulate
manipulated
manipulation
mankind
manned
manner
manners
manor
mansion
mantle
manual
manually
manufacture
manufactured
manufacturer
manufacturers
manufactures
manufacturing
manuscript
manuscripts
many
map
maple
mapped
mapping
maps
marathon
marble
march
marched
marching
mare
margin
marginal
margins
marijuana
marine
marital
maritime
mark
marked
marker
markers
market
marketed
marketing
marketplace
markets
marking
markings
marks
marred
marriage
marriages
married
marries
marry
marrying
marsh
marshal
marshes
martial
martyr
mascot
masculine
mask
masked
masks
masonry
mass
massacre
masses
massive
mast
master
mastered
mastering
masterpiece
masters
mat
match
matched
matches
matching
mate
mater
material
materials
maternal
mates
math
mathematical
mathematician
mathematics
mating
matrices
matrix
matter
matters
mature
maturity
mausoleum
maximum
may
maybe
mayor
maze
me
meadow
meadows
meal
meals
mean
meaning
meaningful
meanings
means
meant
meantime
meanwhile
measure
measured
measurement
measurements
measures
measuring
meat
mechanic
mechanical
mechanics
mechanism
mechanisms
medal
medals
media
median
mediated
medical
medication
medicine
medicines
medieval
meditation
medium
medley
meet
meeting
meetings
meets
melancholy
melodic
melodies
melody
melt
melted
melting
member
members
membership
membrane
memoir
memoirs
memorable
memorial
memories
memory
men
menacing
mental
mentally
mention
mentioned
mentioning
mentions
mentor
menu
mercenaries
mercenary
merchandise
merchant
merchants
mercury
mercy
mere
merely
merge
merged
merger
merging
merit
merits
mess
message
messages
messenger
met
meta
metabolic
metabolism
metal
metallic
metals
metaphor
meter
meters
method
methodology
methods
metre
metres
metric
metro
metropolitan
mg
mi
mice
micro
microphone
mid
middle
midfield
midfielder
midnight
midst
midway
might
mighty
migrant
migrants
migrate
migrated
migration
mild
mile
miles
milestone
militant
militants
military
militia
milk
mill
millennium
millimetres
million
millions
mills
mimic
min
mind
minded
minds
mine
mined
mineral
minerals
miners
mines
mini
miniature
minimal
minimize
minimum
mining
miniseries
minister
ministers
ministry
minor
minorities
minority
minors
mint
minus
minute
minutes
miracle
miracles
mirror
mirrored
mirrors
misery
misleading
miss
missed
misses
missile
missiles
missing
mission
missionaries
missionary
missions
mist
mistake
mistaken
mistakenly
mistakes
mistress
mit
mitochondrial
mix
mixed
mixes
mixing
mixture
mm
moaning
mob
mobile
mobility
mock
mocked
mocking
mode
model
modeled
modeling
modelled
modelling
models
moderate
moderately
modern
modernist
modernization
modes
modest
modification
modifications
modified
modify
modular
moist
moisture
mold
mole
molecular
molecule
molecules
mom
moment
momentarily
moments
momentum
mon
monarch
monarchy
monasteries
monastery
monastic
monetary
money
moniker
monitor
monitored
monitoring
monitors
monk
monkey
monkeys
monks
monopoly
monsoon
monster
monsters
monstrous
month
monthly
months
monument
monumental
monuments
mood
moon
moral
morale
morality
more
morning
mornings
morphology
mortal
mortality
mortar
mosaic
mosque
mosques
moss
most
mostly
moth
mother
mothers
motif
motifs
motion
motionless
motions
motivated
motivation
motive
motives
motor
motorcycle
motors
motorway
motto
mound
mounds
mount
mountain
mountainous
mountains
mounted
mounting
mounts
mourning
mouse
mouth
mouths
move
moved
movement
movements
moves
movie
movies
moving
mph
much
mud
muddy
multi
multinational
multiplayer
multiple
multitude
mum
municipal
municipalities
municipality
munitions
mural
murals
murder
murdered
murderer
murdering
murders
muscle
muscles
muscular
museum
museums
mushroom
music
musical
musicals
musician
musicians
must
muster
mustered
mutant
mutations
muted
mutual
mutually
muzzle
my
myself
mysteries
mysterious
mystery
mystical
myth
mythical
mythological
mythology
myths
n
na
nail
nails
naive
naked
name
named
namely
names
namesake
naming
nape
narrated
narration
narrative
narratives
narrator
narrow
narrowed
narrower
narrowing
narrowly
nasal
nasty
nation
national
nationalism
nationalist
nationalists
nationality
nationally
nations
nationwide
native
natives
natural
naturalist
naturally
nature
nausea
nautical
naval
nave
navigate
navigation
navy
ne
near
nearby
neared
nearer
nearest
nearly
neat
necessarily
necessary
necessity
neck
necklace
need
needed
needing
needle
needles
needs
negative
negatively
neglect
neglected
negotiate
negotiated
negotiating
negotiation
negotiations
neighbor
neighborhood
neighborhoods
neighboring
neighbors
neighbour
neighbourhood
neighbouring
neighbours
neither
neo
neon
nephew
nerves
nervous
nest
nesting
nests
net
nets
network
networking
networks
neural
neurons
neutral
neutrality
neutron
never
nevertheless
new
newborn
newcomer
newer
newest
newly
news
newspaper
newspapers
next
ni
nice
nicely
niche
nickel
nickname
nicknamed
niece
night
nightclub
nightmare
nights
nine
nineteen
nineteenth
ninety
ninth
nitrogen
nm
nmi
no
nobility
noble
nobleman
nobles
nobody
node
nodes
noir
noise
noises
noisy
nomadic
nominal
nominally
nominate
nominated
nomination
nominations
nominee
nominees
non
none
nonetheless
nonsense
noon
nor
norm
normal
normally
norms
north
northbound
northeast
northeastern
northern
northward
northwest
northwestern
nose
nostrils
not
notable
notably
notch
note
notebook
noted
notes
noteworthy
nothing
notice
noticeable
noticed
notices
notified
noting
notion
notions
notoriety
notorious
novel
novelist
novella
novels
novelty
now
nowhere
nuclear
nuclei
nucleus
nude
number
numbered
numbering
numbers
numerical
numerous
nuns
nurse
nursery
nurses
nursing
nut
nutrients
nutrition
nuts
née
o
oak
oath
obey
obituary
object
objected
objections
objective
objectives
objects
obligation
obligations
obliged
oblique
oblivious
obscure
obscured
observation
observations
observatory
observe
observed
observer
observers
observes
observing
obsessed
obsession
obsolete
obstacle
obstacles
obtain
obtained
obtaining
obvious
obviously
occasion
occasional
occasionally
occasions
occupants
occupation
occupational
occupations
occupied
occupies
occupy
occupying
occur
occurred
occurrence
occurring
occurs
ocean
oceans
octagonal
odd
oddly
odds
odor
of
off
offence
offences
offended
offenders
offense
offensive
offer
offered
offering
offerings
offers
office
officer
officers
offices
official
officially
officials
offs
offset
offshore
offspring
often
og
oh
oil
oils
okay
old
older
oldest
olds
olive
ominous
omitted
on
once
one
ones
ongoing
online
only
onset
onstage
onto
onward
onwards
op
open
opened
opener
opening
openings
openly
opens
opera
operas
operate
operated
operates
operatic
operating
operation
operational
operations
operative
operator
operators
opinion
opinions
opponent
opponents
opportunities
opportunity
oppose
opposed
opposing
opposite
opposition
oppression
opted
optical
optimal
optimistic
option
optional
options
or
oral
orange
orbit
orbital
orbits
orchards
orchestra
orchestral
orchestras
orchestrated
orchid
ordained
ordeal
order
ordered
ordering
orderly
orders
ordinance
ordinary
ordination
ore
org
organ
organic
organisation
organisations
organise
organised
organising
organism
organisms
organization
organizations
organize
organized
organizer
organizers
organizing
organs
orientation
oriented
origin
original
originally
originate
originated
originates
originating
origins
ornamental
ornaments
ornate
orphan
orphanage
orthodox
ostensibly
other
others
otherwise
ou
ought
ounce
our
ourselves
out
outbreak
outcome
outcomes
outdoor
outdoors
outer
outfit
outfits
outgoing
outlet
outlets
outline
outlined
outlines
outlook
outnumbered
outpost
output
outrage
outreach
outright
outs
outside
outsider
outskirts
outspoken
outstanding
outward
oval
oven
over
overall
overcome
overhaul
overhead
overlap
overlapping
overlooked
overlooking
overly
overnight
overrun
overs
oversaw
overseas
oversee
overseeing
overseen
oversight
oversized
overthrow
overtime
overturned
overview
overwhelmed
overwhelming
owe
owed
owing
owl
own
owned
owner
owners
ownership
owning
owns
oxidation
oxide
oxygen
oz
p
pace
paced
pacing
pack
package
packaged
packages
packaging
packed
packing
packs
pact
pad
padded
pads
pagan
page
pageant
pages
paid
pain
painful
pains
paint
painted
painter
painters
painting
paintings
paints
pair
paired
pairing
pairs
palace
pale
paler
palm
pamphlet
pan
panel
panels
panic
pants
papal
paper
paperback
papers
par
para
parachute
parade
paradigm
paragraph
parallel
parallels
parameters
paramilitary
paranoid
paranormal
parasite
parcel
pardon
parent
parental
parents
parish
parishes
park
parked
parking
parks
parliament
parliamentary
parody
parole
part
parted
partial
partially
participant
participants
participate
participated
participating
participation
particle
particles
particular
particularly
parties
parting
partisan
partition
partly
partner
partnered
partners
partnership
partnerships
parts
party
pass
passage
passages
passed
passenger
passengers
passes
passing
passion
passionate
passive
passport
passports
past
pastor
pastoral
pasture
pat
patch
patches
patent
patented
patents
paternal
path
pathetic
paths
pathway
pathways
patience
patient
patients
patriarch
patriotic
patrol
patrolling
patrols
patron
patronage
patrons
pattern
patterns
pause
paused
paved
pavement
pavilion
pawn
pay
paying
payment
payments
pays
peace
peaceful
peacefully
peak
peaked
peaking
peaks
peasant
peasants
peculiar
pedal
pedestrian
peer
peers
pen
penalties
penalty
pencil
pending
penetrate
penetrated
penetrating
penetration
peninsula
penis
penned
pension
people
peoples
per
perceive
perceived
percent
percentage
perception
perch
perched
percussion
perennial
perfect
perfection
perfectly
perform
performance
performances
performed
performer
performers
performing
performs
perfume
perhaps
perimeter
period
periodic
periodical
periodically
periodicals
periods
peripheral
periphery
perished
permanent
permanently
permission
permit
permits
permitted
permitting
perpendicular
perpetual
persecution
persisted
persistent
person
persona
personal
personalities
personality
personally
personnel
persons
perspective
perspectives
persuade
persuaded
pertaining
pet
petition
petitioned
petrol
petroleum
pets
petty
phase
phased
phases
phenomena
phenomenon
philanthropist
philosopher
philosophers
philosophical
philosophy
phone
phones
phosphate
photo
photograph
photographed
photographer
photographers
photographic
photographs
photography
photos
phrase
phrases
phylogenetic
physical
physically
physician
physicist
physics
physiological
pianist
piano
pick
picked
picking
picks
picnic
picture
pictured
pictures
picturesque
pie
piece
pieces
pier
pierced
piercing
piers
pig
pigeon
pigs
pile
piles
pilgrimage
pilgrims
pill
pillar
pillars
pillow
pilot
pilots
pin
pinch
pine
pink
pinned
pinyin
pioneer
pioneered
pioneering
pioneers
pipe
pipeline
pipes
pirate
pirates
pistol
pistols
piston
pit
pitch
pitched
pitcher
pitchers
pitches
pitching
pits
pity
pivotal
place
placed
placement
places
placing
plague
plagued
plain
plains
plan
plane
planes
planet
planetary
planets
planned
planning
plans
plant
plantation
plantations
planted
planting
plants
plaque
plasma
plaster
plastered
plastic
plate
plateau
plates
platform
platforms
platinum
platoon
plausible
play
playable
playback
played
player
players
playground
playing
playoff
playoffs
plays
playwright
plaza
plea
pleaded
pleading
pleasant
please
pleased
pleasure
pledge
pledged
plenty
plot
plots
plotting
plunged
plural
plus
pm
pneumonia
pocket
pockets
podcast
podium
poem
poems
poet
poetic
poetry
poets
point
pointed
pointing
pointless
points
poised
poison
poisoned
poisoning
poisonous
poked
poker
poking
polar
pole
poles
police
policeman
policemen
policies
policing
policy
polished
polite
political
politically
politician
politicians
politics
poll
polling
polls
pollution
polymer
polynomial
pond
pool
pools
poor
poorly
pop
pope
popping
populace
popular
popularity
popularized
popularly
populated
population
populations
populous
porch
pork
pornography
port
portable
portal
portfolio
portico
portion
portions
portrait
portraits
portray
portrayal
portrayed
portraying
portrays
ports
pose
posed
poses
posing
position
positioned
positioning
positions
positive
positively
possess
possessed
possesses
possessing
possession
possessions
possessive
possibilities
possibility
possible
possibly
post
postal
posted
poster
posterior
posters
posthumous
posthumously
posting
postponed
posts
postseason
posture
postwar
pot
potassium
potato
potatoes
potent
potential
potentially
pots
pottery
pouch
pound
pounder
pounding
pounds
pour
poured
pouring
poverty
powder
power
powered
powerful
powers
pp
practical
practically
practice
practiced
practices
practised
practitioners
prairie
praise
praised
praising
pray
prayed
prayer
prayers
praying
pre
preacher
preaching
preceded
precedence
precedent
preceding
precinct
precious
precipitation
precise
precisely
precision
precursor
predator
predators
predatory
predecessor
predecessors
predict
predictable
predicted
prediction
predictions
predominant
predominantly
preface
prefecture
prefer
preference
preferences
preferred
preferring
prefers
prefix
pregnancy
pregnant
prehistoric
prejudice
preliminary
premature
premier
premiere
premiered
premise
premises
premium
preoccupied
preparation
preparations
preparatory
prepare
prepared
prepares
preparing
prescribed
preseason
presence
present
presentation
presentations
presented
presenter
presenting
presently
presents
preservation
preserve
preserved
preserves
preserving
presided
presidency
president
presidential
presidents
presiding
press
pressed
presses
pressing
pressure
pressures
prestige
prestigious
presumably
presumed
pretend
pretended
pretending
pretty
prevailed
prevailing
prevalence
prevalent
prevent
prevented
preventing
prevention
prevents
preview
previous
previously
prey
price
priced
prices
pride
priest
priesthood
priests
primarily
primary
prime
primitive
prince
princes
princess
principal
principally
principle
principles
print
printed
printer
printing
prints
prior
priorities
priority
prison
prisoner
prisoners
prisons
privacy
private
privately
privilege
privileged
privileges
prize
prizes
pro
probability
probable
probably
probe
problem
problematic
problems
procedure
procedures
proceed
proceeded
proceeding
proceedings
proceeds
process
processed
processes
processing
procession
processors
proclaimed
proclamation
produce
produced
producer
producers
produces
producing
product
production
productions
productive
products
profession
professional
professionally
professionals
professor
professors
profile
profit
profitable
profits
profound
program
programme
programmed
programmer
programmes
programming
programs
progress
progressed
progresses
progression
progressive
progressively
prohibit
prohibited
prohibition
project
projected
projecting
projection
projections
projects
proliferation
prolific
prolonged
prominence
prominent
prominently
promise
promised
promises
promising
promote
promoted
promoter
promotes
promoting
promotion
promotional
promotions
prompted
prompting
promptly
prone
pronounced
pronunciation
proof
prop
propaganda
propelled
propeller
proper
properly
properties
property
prophecy
prophet
proponent
proportion
proportional
proportions
proposal
proposals
propose
proposed
proposes
proposing
proposition
proprietary
proprietor
propulsion
prose
prosecution
prosecutor
prosecutors
prospect
prospective
prospects
prosperity
prosperous
prostitute
prostitutes
prostitution
protagonist
protagonists
protect
protected
protecting
protection
protective
protector
protects
protein
proteins
protest
protested
protesters
protesting
protests
protocol
protocols
prototype
prototypes
protruding
proud
proudly
prove
proved
proven
proves
provide
provided
provider
providers
provides
providing
province
provinces
provincial
proving
provision
provisional
provisions
provoked
proximity
ps
pseudo
pseudonym
psychedelic
psychiatric
psychic
psychological
psychologist
psychology
pu
pub
public
publication
publications
publicity
publicly
publish
published
publisher
publishers
publishes
publishing
pull
pulled
pulling
pulls
pulmonary
pulp
pulpit
pulse
pulses
pump
pumped
pumping
pumps
punch
punched
punching
punish
punished
punishment
punk
punt
pupil
pupils
puppet
purchase
purchased
purchases
purchasing
pure
purely
purity
purple
purpose
purposes
pursue
pursued
pursuing
pursuit
push
pushed
pushes
pushing
put
puts
putting
puzzle
puzzled
puzzles
pyramid
q
qualification
qualifications
qualified
qualifiers
qualify
qualifying
qualities
quality
quantities
quantity
quantum
quarry
quarter
quarterback
quarterfinals
quarters
quartet
quasi
que
queen
quest
question
questionable
questioned
questioning
questions
quick
quicker
quickly
quiet
quietly
quit
quite
quota
quote
quoted
quotes
r
rabbi
rabbits
race
raced
races
racial
racing
racism
racist
rack
radar
radial
radiating
radiation
radical
radio
radioactive
radios
radius
rag
rage
ragged
raid
raided
raiding
raids
rail
railroad
railroads
rails
railway
railways
rain
rainbow
rainfall
rainforest
rains
rainy
raise
raised
raises
raising
raked
rallied
rallies
rally
ram
ramp
ran
ranch
random
randomly
rang
range
ranged
ranges
ranging
rank
ranked
ranking
rankings
ranks
ransom
rap
rape
raped
rapid
rapidly
rapper
rare
rarely
rat
rate
rated
rates
rather
ratified
rating
ratings
ratio
rational
ratios
rats
raw
ray
rays
razor
re
reach
reached
reaches
reaching
react
reacted
reaction
reactions
reactive
reactor
reactors
read
reader
readers
readily
readiness
reading
readings
reads
ready
real
realise
realised
realism
realistic
reality
realization
realize
realized
realizes
realizing
really
realm
rear
reared
reason
reasonable
reasonably
reasoned
reasoning
reasons
reassigned
rebel
rebellion
rebellious
rebels
rebounds
rebranded
rebuild
rebuilding
rebuilt
recall
recalled
recalling
recalls
recaptured
receive
received
receiver
receivers
receives
receiving
recent
recently
reception
receptions
receptor
receptors
recession
recipe
recipes
recipient
recipients
recited
reclaimed
recognise
recognised
recognition
recognizable
recognize
recognized
recognizes
recognizing
recommend
recommendation
recommendations
recommended
reconcile
reconciliation
reconnaissance
reconstructed
reconstruction
record
recorded
recorder
recording
recordings
records
recounted
recounts
recover
recovered
recovering
recovery
recreation
recreational
recruit
recruited
recruiting
recruitment
recruits
rectangular
rector
recurring
recycled
recycling
red
reddish
redesignated
redesigned
redevelopment
reduce
reduced
reduces
reducing
reduction
redundant
reef
reefs
reel
reelected
reelection
refer
referee
reference
referenced
references
referendum
referred
referring
refers
refined
reflect
reflected
reflecting
reflection
reflective
reflects
reform
reformed
reforms
refrain
refuge
refugee
refugees
refurbished
refusal
refuse
refused
refuses
refusing
regain
regained
regard
regarded
regarding
regardless
regards
regeneration
regent
reggae
regime
regiment
regimental
regiments
region
regional
regions
register
registered
registers
registration
registry
regret
regretted
regular
regularly
regulate
regulated
regulating
regulation
regulations
regulator
regulatory
rehabilitation
rehearsal
reign
reigned
reigning
reinforce
reinforced
reinforcements
reins
reinstated
reissue
reissued
reject
rejected
rejecting
rejection
rejects
rejoined
relate
related
relates
relating
relation
relations
relationship
relationships
relative
relatively
relatives
relativity
relaxation
relaxed
relaxing
relay
release
released
releases
releasing
relegated
relegation
relentless
relevance
relevant
reliability
reliable
reliance
relics
relied
relief
relies
relieve
relieved
religion
religions
religious
relocate
relocated
relocation
reluctance
reluctant
rely
relying
remain
remainder
remained
remaining
remains
remake
remark
remarkable
remarkably
remarked
remarks
remarried
remastered
rematch
remedy
remember
remembered
remembering
remembers
remind
reminded
reminder
reminding
reminds
reminiscent
remix
remixed
remixes
remnant
remnants
remorse
remote
removal
remove
removed
removes
removing
renamed
render
rendered
rendering
rendition
renew
renewable
renewal
renewed
renovated
renovation
renovations
renowned
rent
rental
rented
reopened
reorganized
repair
repaired
repairs
repay
repeal
repealed
repeat
repeated
repeatedly
repeating
repeats
repertoire
repetition
repetitive
replace
replaced
replacement
replaces
replacing
replay
replica
replication
replied
replies
reply
report
reported
reportedly
reporter
reporters
reporting
reports
represent
representation
representations
representative
representatives
represented
representing
represents
repression
reprinted
reprised
reproduce
reproduced
reproduction
reproductive
reptiles
republic
republican
repulsed
reputation
reputed
request
requested
requesting
requests
require
required
requirement
requirements
requires
requiring
rescue
rescued
rescuing
research
researched
researcher
researchers
researching
resemblance
resemble
resembled
resembles
resembling
resentment
reservation
reservations
reserve
reserved
reserves
reservoir
reservoirs
reside
resided
residence
residences
resident
residential
residents
resides
residing
residual
residue
residues
resign
resignation
resigned
resist
resistance
resistant
resisted
resisting
resolution
resolutions
resolve
resolved
resonance
resort
resorts
resource
resources
respect
respectable
respected
respective
respectively
respects
respiratory
respond
responded
responding
responds
response
responses
responsibilities
responsibility
responsible
rest
restart
restaurant
restaurants
rested
resting
restless
restoration
restore
restored
restoring
restrained
restraint
restrict
restricted
restriction
restrictions
restructuring
rests
result
resulted
resulting
results
resume
resumed
resurrected
resurrection
retail
retailers
retain
retained
retaining
retains
retaliation
retention
retire
retired
retirement
retiring
retreat
retreated
retreating
retrieve
retrieved
retrospective
return
returned
returning
returns
reunion
reunited
reveal
revealed
revealing
reveals
revelation
revenge
revenue
revenues
revered
reversal
reverse
reversed
reverted
review
reviewed
reviewer
reviewers
reviewing
reviews
revised
revision
revival
revive
revived
revoked
revolt
revolution
revolutionary
revolver
revolves
reward
rewarded
rewards
rhetoric
rhyme
rhythm
rhythmic
rhythms
rib
ribbon
ribbons
ribs
rice
rich
richest
rid
ridden
ride
rider
riders
rides
ridge
ridges
ridiculous
riding
rifle
rifles
rift
rig
right
rights
rigid
rim
ring
ringing
rings
riot
riots
rip
ripped
rise
risen
rises
rising
risk
risked
risks
risky
rite
rites
ritual
rituals
rival
rivalry
rivals
river
rivers
road
roads
roadway
robbed
robbery
robe
robes
robin
robot
robotic
robots
robust
rock
rocket
rockets
rocking
rocks
rocky
rod
rode
rods
rogue
role
roles
roll
rolled
roller
rolling
rolls
romance
romantic
roof
roofs
rookie
room
roommate
rooms
root
rooted
roots
rope
ropes
rose
roster
rot
rotated
rotating
rotation
rotten
rotting
rough
roughly
round
rounded
rounds
route
routed
routes
routine
routinely
routines
routing
row
rower
rowing
rows
royal
royalty
rpm
rub
rubbed
rubber
rubbing
rubble
rude
rugby
rugged
ruin
ruined
ruins
rule
ruled
ruler
rulers
rules
ruling
rumor
rumors
rumours
run
runner
runners
running
runoff
runs
runway
runways
rural
rush
rushed
rushes
rushing
rusty
ruthless
s
sa
sabotage
sack
sacked
sacks
sacred
sacrifice
sacrificed
sacrifices
sad
saddle
sadly
sadness
safe
safely
safer
safety
saga
sage
said
sail
sailed
sailing
sailor
sailors
sails
saint
saints
sake
salaries
salary
sale
sales
salesman
salmon
salon
saloon
salt
salts
salute
salvage
salvation
same
sample
sampled
samples
sampling
sanctioned
sanctions
sanctuary
sand
sandstone
sandwich
sandwiches
sandy
sang
sanitation
sank
sarcasm
sarcastic
sat
satellite
satellites
satin
satire
satirical
satisfaction
satisfactory
satisfied
satisfy
satisfying
saturated
sauce
savage
save
saved
saves
saving
savings
saw
saxophone
saxophonist
say
saying
says
scale
scaled
scales
scan
scandal
scanning
scar
scarce
scarcely
scare
scared
scarf
scarlet
scary
scattered
scattering
scenario
scenarios
scene
scenery
scenes
scenic
scent
schedule
scheduled
schedules
scheduling
scheme
schemes
scholar
scholarly
scholars
scholarship
school
schooling
schools
schooner
science
sciences
scientific
scientist
scientists
scope
score
scored
scorer
scores
scoring
scout
scouts
scrap
scraping
scrapped
scratch
scratching
scream
screaming
screams
screen
screened
screening
screenplay
screens
screenwriter
screw
script
scripted
scripts
scroll
scrub
scrutiny
sculpted
sculptor
sculpture
sculptures
se
sea
seal
sealed
sealing
seals
search
searched
searches
searching
seas
season
seasonal
seasons
seat
seated
seater
seating
seats
second
secondary
seconds
secrecy
secret
secretary
secretly
secrets
sect
section
sections
sector
sectors
secular
secure
secured
securing
security
sediment
sediments
seductive
see
seed
seeds
seeing
seek
seeking
seeks
seem
seemed
seemingly
seems
seen
sees
segment
segments
segregated
segregation
seize
seized
seizure
seldom
select
selected
selecting
selection
selections
selective
self
selfish
sell
seller
selling
sells
semantic
semester
semi
semifinal
semifinals
seminal
senator
send
sending
sends
senior
seniors
sensation
sensations
sense
senses
sensible
sensing
sensitive
sensitivity
sensors
sensory
sensual
sent
sentence
sentenced
sentences
sentiment
sentiments
separate
separated
separately
separates
separating
separation
sequel
sequence
sequences
sergeant
serial
series
serious
seriously
sermon
serpent
servant
servants
serve
served
server
servers
serves
service
serviced
services
serving
session
sessions
set
sets
setting
settings
settle
settled
settlement
settlements
settler
settlers
settling
setup
seven
seventeen
seventeenth
seventh
seventy
several
severe
severed
severely
severity
sewage
sewer
sex
sexes
sexual
sexuality
sexually
sexy
shade
shades
shadow
shadows
shaft
shafts
shake
shaken
shakes
shaking
shale
shall
shallow
shame
shape
shaped
shapes
shaping
share
shared
shareholder
shares
sharing
shark
sharks
sharp
sharply
shattered
shattering
shaved
she
shear
sheath
shed
sheep
sheer
sheet
sheets
shelf
shell
shells
shelter
sheltered
shelters
shelves
sheriff
shield
shields
shift
shifted
shifting
shifts
shine
shining
ship
shipment
shipped
shipping
ships
shipyard
shirt
shirts
shit
shock
shocked
shocking
shoe
shoes
shook
shoot
shooter
shooting
shootout
shoots
shop
shopping
shops
shore
shoreline
shores
short
shortage
shortages
shortened
shorter
shortest
shortlisted
shortly
shorts
shot
shotgun
shots
should
shoulder
shoulders
shouldn
shout
shouted
shouting
shouts
shove
show
showcase
showcased
showed
shower
showered
showing
shown
shows
shrimp
shrine
shrines
shrink
shrub
shrubs
shut
shutting
shy
si
sibling
siblings
sic
sick
sickness
side
sided
sides
sideways
siding
siege
sight
sighted
sights
sign
signal
signaled
signaling
signals
signature
signatures
signed
significance
significant
significantly
signing
signs
silence
silent
silently
silicon
silk
silly
silver
silvery
similar
similarities
similarity
similarly
simple
simpler
simplest
simplicity
simplified
simply
simulated
simulation
simultaneous
simultaneously
sin
since
sincere
sing
singer
singers
singing
single
singles
sings
singular
sinister
sink
sinking
sinks
sins
sip
sir
sire
sister
sisters
sit
sitcom
site
sites
sits
sitting
situated
situation
situations
six
sixteen
sixteenth
sixth
sixty
size
sized
sizes
skate
skating
skeletal
skeleton
skeptical
sketch
sketches
ski
skies
skiing
skill
skilled
skills
skin
skinned
skins
skirt
skirts
skull
sky
slab
slain
slam
slang
slapping
slash
slate
slated
slaughter
slave
slavery
slaves
sleep
sleeping
sleeve
sleeves
slender
slept
slice
sliced
slick
slide
slight
slightest
slightly
slim
slip
slipped
slipping
slips
slit
slogan
slope
slopes
slot
slots
slow
slowed
slower
slowing
slowly
small
smaller
smallest
smart
smash
smashed
smell
smelling
smile
smiling
smoke
smoked
smoking
smooth
smoothly
smug
smuggling
snails
snake
snakes
snap
snapped
snapping
snaps
sneak
sniper
snout
snow
so
soaked
soap
sob
sobbing
sober
soccer
social
socialism
socialist
socially
societal
societies
society
socio
sociology
socks
sodium
soft
softened
softer
software
soil
soils
solar
sold
soldier
soldiers
sole
solely
solemn
solicitor
solid
solidarity
solitary
solo
soloist
soluble
solution
solutions
solve
solved
solvent
solving
some
somebody
someday
somehow
someone
something
sometime
sometimes
somewhat
somewhere
son
song
songs
songwriter
songwriters
songwriting
sons
soon
sooner
sophisticated
sophomore
soprano
sore
sorry
sort
sorted
sorting
sorts
sought
soul
souls
sound
sounded
sounding
sounds
soundtrack
soup
source
sourced
sources
south
southbound
southeast
southeastern
southern
southernmost
southward
southwest
southwestern
sovereign
sovereignty
spa
space
spacecraft
spaced
spaces
span
spanned
spanning
spans
spare
spared
spark
sparked
sparkling
sparks
sparse
spatial
spawned
speak
speaker
speakers
speaking
speaks
spear
special
specialised
specialising
specialist
specialists
specialized
specializes
specializing
specially
specialty
species
specific
specifically
specification
specifications
specified
specify
specimen
specimens
spectacle
spectacular
spectators
spectral
spectrum
speculated
speculation
speech
speeches
speed
speeds
spell
spelled
spelling
spells
spend
spending
spends
spent
sperm
sphere
spheres
spherical
spices
spider
spiders
spike
spikes
spill
spilled
spin
spinal
spine
spines
spinning
spins
spiral
spire
spirit
spirits
spiritual
spirituality
spit
spite
splash
splendid
split
splits
splitting
spoiled
spoke
spoken
spokesman
spokesperson
sponsor
sponsored
sponsors
sponsorship
spontaneous
spoon
sport
sporting
sports
spot
spotlight
spots
spotted
spouse
sprawling
spray
spread
spreading
spreads
spring
springs
sprint
sprinter
sprung
spun
spur
spurred
spy
sq
squad
squadron
squadrons
squads
square
squares
squeezed
squirrel
stab
stabbed
stabbing
stability
stable
stack
stacked
stadium
staff
staffed
stage
staged
stages
staging
stain
stained
stainless
staircase
stairs
stairway
stake
stakes
stalk
stalking
stall
stalled
stallion
stamp
stamped
stamps
stance
stand
standard
standardized
standards
standing
standings
stands
staple
star
stare
staring
stark
starred
starring
stars
start
started
starter
starting
startling
starts
starvation
state
stated
statement
statements
states
statesman
static
stating
station
stationary
stationed
stations
statistical
statistics
statue
statues
stature
status
statute
statutes
statutory
stay
stayed
staying
stays
steadily
steady
steal
stealing
steals
steam
steamed
steamer
steaming
steel
steep
steer
steered
steering
stellar
stem
stems
step
stepfather
stepped
stepping
steps
stereo
stereotypes
stern
stew
stick
sticking
sticks
sticky
stiff
stiffened
still
stimulate
stimulation
stimulus
sting
stint
stir
stirred
stirring
stock
stocks
stole
stolen
stomach
stone
stones
stood
stool
stop
stopped
stopping
stops
storage
store
stored
stores
storey
stories
storing
storm
stormed
storms
story
storyline
storylines
storytelling
stove
straight
straightforward
strain
strained
straining
strains
strand
stranded
strands
strange
stranger
strangers
strap
strategic
strategically
strategies
strategy
straw
stray
streak
streaked
streaks
stream
streaming
streams
street
streets
strength
strengthen
strengthened
strengthening
strengths
stress
stressed
stresses
stretch
stretched
stretches
stretching
stricken
strict
strictly
stride
strike
strikeouts
striker
strikes
striking
string
strings
strip
stripe
striped
stripes
stripped
strips
stroke
strong
stronger
strongest
stronghold
strongly
struck
structural
structure
structured
structures
struggle
struggled
struggles
struggling
strung
stubborn
stuck
stud
student
students
studied
studies
studio
studios
study
studying
stuff
stumble
stumbled
stunned
stunning
stunt
stupid
style
styled
styles
styling
stylized
su
sub
subdivided
subdivisions
subdued
subfamily
subject
subjected
subjects
submarine
submarines
submerged
submission
submit
submitted
subordinate
subscribers
subscription
subsequent
subsequently
subset
subsidiary
subsidies
subspecies
substance
substances
substantial
substantially
substitute
substituted
substitution
substrate
substrates
subtle
subtropical
subunit
suburb
suburban
suburbs
subway
succeed
succeeded
succeeding
succeeds
success
successes
successful
successfully
succession
successive
successively
successor
successors
such
sucked
sucking
sucks
sudden
suddenly
sue
sued
suffer
suffered
suffering
suffers
sufficient
sufficiently
suffrage
sugar
suggest
suggested
suggesting
suggestion
suggestions
suggests
suicide
suit
suitable
suite
suited
suits
sulfur
sultan
sum
summarized
summary
summer
summers
summit
summon
summoned
sums
sun
sung
sunk
sunlight
sunny
sunset
sunshine
super
superb
superficial
superhero
superintendent
superior
superiority
superiors
supermarket
supernatural
superseded
supervised
supervising
supervision
supervisor
supper
supplement
supplemented
supplied
supplier
suppliers
supplies
supply
supplying
support
supported
supporter
supporters
supporting
supportive
supports
suppose
supposed
supposedly
suppress
suppressed
suppression
supremacy
supreme
sur
sure
surely
surf
surface
surfaced
surfaces
surfing
surge
surgeon
surgery
surgical
surname
surpassed
surplus
surprise
surprised
surprises
surprising
surprisingly
surreal
surrender
surrendered
surround
surrounded
surrounding
surroundings
surrounds
surveillance
survey
surveyed
surveying
surveyor
surveys
survival
survive
survived
survives
surviving
survivor
survivors
susceptible
suspect
suspected
suspects
suspended
suspension
suspicion
suspicions
suspicious
suspiciously
sustain
sustainable
sustained
sustaining
swallow
swallowed
swallowing
swam
swamp
swamps
swap
sway
swear
sweating
sweep
sweeping
sweet
swell
swelled
swelling
swept
swift
swiftly
swim
swimmer
swimmers
swimming
swing
swinging
swings
switch
switched
switches
switching
swollen
sword
swords
sworn
swung
syllable
syllables
symbol
symbolic
symbols
symmetrical
symmetry
sympathetic
sympathy
symptoms
synagogue
syndicated
syndrome
synonym
synonymous
synthesis
synthesized
synthesizer
synthesizers
synthetic
syrup
system
systematic
systematically
systemic
systems
t
ta
table
tables
tablets
tackle
tackles
tactic
tactical
tactics
tag
tail
tailed
tailored
tails
take
taken
takeoff
takeover
takes
taking
tale
talent
talented
talents
tales
talk
talked
talking
talks
tall
taller
tallest
tally
tan
tandem
tangled
tank
tanker
tanks
tap
tape
taped
tapes
tapping
target
targeted
targeting
targets
task
tasked
tasks
taste
tastes
tasting
tattoo
tattoos
taught
tavern
tax
taxa
taxation
taxes
taxi
te
tea
teach
teacher
teachers
teaches
teaching
teachings
team
teamed
teammate
teammates
teams
tear
tearing
tears
tease
tech
technical
technically
technique
techniques
technological
technologies
technology
teen
teenage
teenager
teenagers
teens
teeth
telecommunications
telegraph
telephone
telescope
televised
television
tell
telling
tells
temper
temperate
temperature
temperatures
tempered
template
temple
temples
tempo
temporarily
temporary
tempting
ten
tenant
tend
tended
tendencies
tendency
tender
tends
tennis
tenor
tens
tense
tension
tensions
tent
tentative
tentatively
tenth
tents
tenure
term
termed
terminal
terminals
terminate
terminated
terminating
termination
terminology
terminus
terms
terrace
terrain
terrestrial
terrible
terribly
terrifying
territorial
territories
territory
terror
terrorism
terrorist
terrorists
tertiary
test
tested
testified
testify
testimony
testing
tests
text
textbook
textbooks
textile
textiles
texts
texture
th
than
thank
thanked
thanks
that
the
theater
theaters
theatre
theatres
theatrical
thee
theft
their
theirs
them
theme
themed
themes
themselves
then
theologian
theological
theology
theorem
theoretical
theories
theorist
theory
therapeutic
therapist
therapy
there
thereafter
thereby
therefore
thermal
these
thesis
they
thick
thicker
thickness
thief
thieves
thigh
thighs
thin
thing
things
think
thinking
thinks
thinner
third
thirds
thirst
thirteen
thirteenth
thirty
this
thorough
thoroughly
those
thou
though
thought
thoughtful
thoughts
thousand
thousands
thread
threads
threat
threaten
threatened
threatening
threatens
threats
three
threshold
threw
thrill
thrilled
thriller
thriving
throat
throne
through
throughout
throw
throwing
thrown
throws
thrust
thumb
thump
thunder
thus
thy
ticket
tickets
tide
tie
tied
tier
ties
tiger
tight
tightly
tile
tiles
till
tilt
tilting
timber
time
timed
timeline
times
timetable
timing
tin
tiny
tip
tipped
tips
tire
tired
tissue
tissues
title
titled
titles
titular
to
tobacco
today
toe
toes
together
toilet
toilets
token
told
tolerance
tolerant
tolerate
toll
tomato
tomb
tombs
tomorrow
ton
tone
tones
tongue
tonight
tonnes
tons
too
took
tool
tools
tooth
top
topic
topics
topography
topped
topping
tops
torch
tore
torment
torn
tornado
tornadoes
torpedo
torpedoes
torso
torture
tortured
toss
tossed
total
totaled
totaling
totally
totals
touch
touchdown
touchdowns
touched
touches
touching
tough
tour
toured
touring
tourism
tourist
tourists
tournament
tournaments
tours
tow
toward
towards
towed
tower
towering
towers
town
towns
township
townships
toxic
toxicity
toy
toys
trace
traced
traces
tracing
track
tracked
tracking
tracks
tract
tracts
trade
traded
trademark
trader
traders
trades
trading
tradition
traditional
traditionally
traditions
traffic
tragedy
tragic
trail
trailed
trailer
trailers
trailing
trails
train
trained
trainer
trainers
training
trains
trait
traitor
traits
trajectory
tram
trance
trans
transaction
transactions
transcription
transfer
transferred
transferring
transfers
transform
transformation
transformed
transforming
transforms
transit
transition
transitional
transitioned
transitions
translate
translated
translates
translating
translation
translations
translator
translucent
transmission
transmissions
transmit
transmitted
transmitting
transparency
transparent
transplant
transport
transportation
transported
transporting
transports
transverse
trap
trapped
trapping
traps
trash
trauma
traumatic
travel
traveled
travelers
traveling
travelled
travellers
travelling
travels
treason
treasure
treasurer
treasures
treasury
treat
treated
treaties
treating
treatise
treatment
treatments
treats
treaty
tree
trees
trembling
tremendous
trench
trenches
trend
trends
trial
trials
triangle
triangular
tribal
tribe
tribes
tributaries
tributary
tribute
trick
tricks
tried
tries
trigger
triggered
trillion
trilogy
trim
trimmed
trio
trip
triple
trips
triumph
trivial
trolley
trombone
troop
troops
trophies
trophy
tropical
trouble
troubled
troubles
troupe
trousers
trout
truce
truck
trucks
true
truly
trumpet
trunk
trunks
trust
trusted
trustee
trustees
trusting
truth
try
trying
tsunami
tub
tube
tuberculosis
tubes
tug
tuition
tumbling
tumor
tune
tuned
tunes
tuning
tunnel
tunnels
turbine
turbines
turbulent
turf
turkey
turmoil
turn
turned
turning
turnout
turnover
turns
turret
turrets
turtle
tutor
twelfth
twelve
twenties
twentieth
twenty
twice
twin
twins
twist
twisted
twists
twitch
two
tying
type
types
typhoon
typical
typically
typing
u
ugly
uh
ul
ultimate
ultimately
ultra
um
umbrella
umpire
un
unable
unacceptable
unanimous
unanimously
unarmed
unavailable
unaware
unbeaten
uncertain
uncertainty
unchanged
uncle
unclear
uncomfortable
uncommon
unconscious
unconstitutional
unconventional
uncovered
und
undead
undefeated
under
undercover
undergo
undergoing
undergone
undergraduate
underground
underlying
underneath
underside
understand
understanding
understood
undertake
undertaken
undertaking
undertook
underwater
underway
underwent
underworld
undisclosed
undoubtedly
undrafted
une
uneasy
unemployed
unemployment
uneven
unexpected
unexpectedly
unfair
unfamiliar
unfinished
unfortunate
unfortunately
unhappy
unidentified
unification
unified
uniform
uniforms
unincorporated
union
unions
unique
uniquely
unit
unitary
unite
united
units
unity
universal
universally
universe
universities
university
unknown
unlawful
unless
unlike
unlikely
unlimited
unlock
unlocked
unmarried
unnamed
unnatural
unnecessary
unofficial
unopposed
unpaid
unpleasant
unpopular
unprecedented
unpredictable
unpublished
unrelated
unreleased
unreliable
unrest
unseen
unstable
unsuccessful
unsuccessfully
unsure
until
unused
unusual
unusually
unveiled
unwilling
up
upbringing
upcoming
update
updated
updates
upgrade
upgraded
upgrades
upheld
uploaded
upon
upper
upright
uprising
ups
upset
upside
upstairs
upstream
upward
upwards
uranium
urban
urge
urged
urgency
urgent
urges
urging
urine
us
usable
usage
use
used
useful
useless
user
users
uses
using
usual
usually
utilities
utility
utilize
utilized
utilizes
utilizing
utter
uttered
utterly
v
vacancy
vacant
vacated
vacation
vaccine
vacuum
vague
vaguely
vain
valid
validity
valley
valleys
valuable
value
valued
values
valve
vampire
van
vanished
vapor
var
variable
variables
variant
variants
variation
variations
varied
varies
varieties
variety
various
variously
varsity
vary
varying
vase
vassal
vast
vaudeville
vault
vaulted
ve
vector
vectors
vegetable
vegetables
vegetation
vehicle
vehicles
veil
vein
veins
velocity
velvet
vengeance
venom
vent
ventilation
ventral
venture
ventured
ventures
venue
venues
verb
verbal
verdict
verge
verified
verify
vernacular
versa
versatile
verse
verses
version
versions
versus
vertex
vertical
vertically
vertices
very
vessel
vessels
vest
veteran
veterans
veto
via
viable
vibrant
vibration
vicar
vice
vicinity
vicious
victim
victims
victories
victorious
victory
video
videos
view
viewed
viewer
viewers
viewing
viewpoint
views
vigorous
vigorously
villa
village
villagers
villages
villain
villains
vine
vines
vineyards
vintage
vinyl
viola
violate
violated
violating
violation
violations
violence
violent
violet
violin
violinist
viral
virgin
virtual
virtually
virtue
virtues
virus
viruses
visibility
visible
visibly
vision
visions
visit
visited
visiting
visitor
visitors
visits
visual
visually
vital
vivid
vocabulary
vocal
vocalist
vocals
vocational
voice
voiced
voices
void
vol
volatile
volcanic
volcano
volleyball
voltage
volume
volumes
voluntarily
voluntary
volunteer
volunteered
volunteers
vomit
von
vote
voted
voters
votes
voting
vow
vowed
vowel
vowels
vows
voyage
vs
vulnerability
vulnerable
w
wa
wage
wages
wagon
wagons
waist
wait
waited
waiting
waived
wake
wakes
waking
walk
walked
walking
walks
wall
walled
walls
wander
wandered
wandering
wanna
want
wanted
wanting
wants
war
ward
wardrobe
wards
warehouse
warehouses
warfare
warlord
warm
warmed
warmer
warming
warmly
warmth
warn
warned
warning
warnings
warns
warrant
warrior
warriors
wars
warship
warships
wartime
wary
was
wash
washed
wasn
waste
wasted
wasting
watch
watched
watches
watching
water
waterfall
waterfront
waters
watershed
wave
wavelength
waves
waving
wavy
wax
way
ways
we
weak
weaken
weakened
weakening
weaker
weakly
weakness
weaknesses
wealth
wealthy
weapon
weaponry
weapons
wear
wearing
wears
weary
weather
weaving
web
website
websites
wed
wedding
weddings
wedge
weed
weeds
week
weekend
weekends
weekly
weeks
weeping
weigh
weighed
weighing
weighs
weight
weighted
weights
weird
welcome
welcomed
welcoming
welfare
well
wells
went
were
weren
west
western
westward
wet
wetland
wetlands
whale
what
whatever
whatsoever
wheat
wheel
wheelchair
wheeled
wheels
when
whenever
where
whereabouts
whereas
whereby
wherein
wherever
whether
which
while
whilst
whip
whiskey
whistle
white
whites
whitish
who
whoever
whole
wholesale
wholly
whom
whose
why
wicked
wicket
wickets
wide
widely
widen
widened
widening
wider
widespread
widow
widowed
width
wife
wild
wilderness
wildlife
wildly
will
willed
willing
willingly
willingness
win
wind
winding
window
windows
winds
wine
wines
wing
winged
winger
wings
wingspan
winner
winners
winning
wins
winter
winters
wiped
wire
wireless
wires
wisdom
wise
wish
wished
wishes
wishing
wit
witch
witches
with
withdraw
withdrawal
withdrawing
withdrawn
withdrew
within
without
withstand
witness
witnessed
witnesses
wives
wizard
wolf
wolves
woman
women
won
wonder
wondered
wonderful
wondering
wonders
wood
wooded
wooden
woodland
woods
wool
word
words
wore
work
worked
worker
workers
workforce
working
workplace
works
workshop
workshops
world
worlds
worldwide
worm
worms
worn
worried
worries
worry
worrying
worse
worship
worshipped
worst
worth
worthless
worthy
would
wouldn
wound
wounded
wounds
woven
wrapped
wrapping
wrath
wreck
wreckage
wrecked
wrestled
wrestler
wrestlers
wrestling
wrinkled
wrist
wrists
write
writer
writers
writes
writing
writings
written
wrong
wrote
wrought
x
y
ya
yacht
yard
yards
yd
ye
yeah
year
yearly
years
yeast
yellow
yellowish
yes
yesterday
yet
yield
yielded
yielding
yields
yo
you
young
younger
youngest
your
yourself
youth
youthful
youths
z
zero
zinc
zombie
zombies
zone
zones
zoo
zur
|
~
¡
£
¥
§
°
±
²
³
µ
·
½
Á
Å
Æ
É
École
Étienne
Í
Île
Ö
×
Ø
Ú
Ü
Þ
à
é
état
ê
í
Ā
ā
Đ
Ł
Ō
Ż
̃
α
β
γ
κ
μ
С
ا
ح
्
ი
ო
რ
ს
‑
–
—
‘
’
“
”
„
†
…
′
″
⁄
₤
€
₹
⅓
→
−
≤
☉
♭
♯
ス
・
大
